{
  "version": "1.0",
  "truncation": null,
  "padding": null,
  "added_tokens": [
    {
      "id": 0,
      "content": "[UNK]",
      "single_word": false,
      "lstrip": false,
      "rstrip": false,
      "normalized": false,
      "special": true
    },
    {
      "id": 1,
      "content": "[CLS]",
      "single_word": false,
      "lstrip": false,
      "rstrip": false,
      "normalized": false,
      "special": true
    },
    {
      "id": 2,
      "content": "[SEP]",
      "single_word": false,
      "lstrip": false,
      "rstrip": false,
      "normalized": false,
      "special": true
    },
    {
      "id": 3,
      "content": "[PAD]",
      "single_word": false,
      "lstrip": false,
      "rstrip": false,
      "normalized": false,
      "special": true
    },
    {
      "id": 4,
      "content": "[MASK]",
      "single_word": false,
      "lstrip": false,
      "rstrip": false,
      "normalized": false,
      "special": true
    }
  ],
  "normalizer": null,
  "pre_tokenizer": {
    "type": "Whitespace"
  },
  "post_processor": null,
  "decoder": null,
  "model": {
    "type": "BPE",
    "dropout": null,
    "unk_token": null,
    "continuing_subword_prefix": null,
    "end_of_word_suffix": null,
    "fuse_unk": false,
    "byte_fallback": false,
    "ignore_merges": false,
    "vocab": {
      "[UNK]": 0,
      "[CLS]": 1,
      "[SEP]": 2,
      "[PAD]": 3,
      "[MASK]": 4,
      "0": 5,
      "1": 6,
      "2": 7,
      "3": 8,
      "4": 9,
      "5": 10,
      "6": 11,
      "7": 12,
      "8": 13,
      "9": 14,
      "_": 15,
      "a": 16,
      "b": 17,
      "c": 18,
      "d": 19,
      "e": 20,
      "f": 21,
      "g": 22,
      "h": 23,
      "i": 24,
      "j": 25,
      "k": 26,
      "l": 27,
      "m": 28,
      "n": 29,
      "o": 30,
      "p": 31,
      "q": 32,
      "r": 33,
      "s": 34,
      "t": 35,
      "u": 36,
      "v": 37,
      "w": 38,
      "x": 39,
      "y": 40,
      "z": 41,
      "ª": 42,
      "²": 43,
      "³": 44,
      "µ": 45,
      "¹": 46,
      "º": 47,
      "¼": 48,
      "½": 49,
      "ß": 50,
      "à": 51,
      "á": 52,
      "â": 53,
      "ã": 54,
      "ä": 55,
      "å": 56,
      "æ": 57,
      "ç": 58,
      "è": 59,
      "é": 60,
      "ê": 61,
      "ë": 62,
      "ì": 63,
      "í": 64,
      "î": 65,
      "ï": 66,
      "ð": 67,
      "ñ": 68,
      "ò": 69,
      "ó": 70,
      "ô": 71,
      "õ": 72,
      "ö": 73,
      "ø": 74,
      "ù": 75,
      "ú": 76,
      "û": 77,
      "ü": 78,
      "ý": 79,
      "þ": 80,
      "ÿ": 81,
      "ā": 82,
      "ă": 83,
      "ą": 84,
      "ć": 85,
      "č": 86,
      "ď": 87,
      "đ": 88,
      "ē": 89,
      "ĕ": 90,
      "ė": 91,
      "ę": 92,
      "ě": 93,
      "ğ": 94,
      "ġ": 95,
      "ģ": 96,
      "ħ": 97,
      "ĩ": 98,
      "ī": 99,
      "ĭ": 100,
      "į": 101,
      "ı": 102,
      "ļ": 103,
      "ľ": 104,
      "ł": 105,
      "ń": 106,
      "ņ": 107,
      "ň": 108,
      "ŉ": 109,
      "ŋ": 110,
      "ō": 111,
      "ŏ": 112,
      "ő": 113,
      "œ": 114,
      "ř": 115,
      "ś": 116,
      "ş": 117,
      "š": 118,
      "ţ": 119,
      "ť": 120,
      "ū": 121,
      "ŭ": 122,
      "ů": 123,
      "ű": 124,
      "ź": 125,
      "ż": 126,
      "ž": 127,
      "ƒ": 128,
      "ƙ": 129,
      "ơ": 130,
      "ƥ": 131,
      "ư": 132,
      "ƹ": 133,
      "ǁ": 134,
      "ǎ": 135,
      "ǐ": 136,
      "ǔ": 137,
      "ǝ": 138,
      "ǟ": 139,
      "ǡ": 140,
      "ǧ": 141,
      "ǫ": 142,
      "ǵ": 143,
      "ǻ": 144,
      "ȁ": 145,
      "ȃ": 146,
      "ȅ": 147,
      "ȉ": 148,
      "ș": 149,
      "ț": 150,
      "ȡ": 151,
      "ȣ": 152,
      "ȧ": 153,
      "ȩ": 154,
      "ȳ": 155,
      "ɂ": 156,
      "ɐ": 157,
      "ɑ": 158,
      "ɒ": 159,
      "ɔ": 160,
      "ɗ": 161,
      "ə": 162,
      "ɡ": 163,
      "ɣ": 164,
      "ɨ": 165,
      "ɪ": 166,
      "ɭ": 167,
      "ɯ": 168,
      "ɳ": 169,
      "ʃ": 170,
      "ʈ": 171,
      "ʊ": 172,
      "ʌ": 173,
      "ʎ": 174,
      "ʒ": 175,
      "ʔ": 176,
      "ʰ": 177,
      "ʷ": 178,
      "ʹ": 179,
      "ʻ": 180,
      "ʼ": 181,
      "ʽ": 182,
      "ʾ": 183,
      "ʿ": 184,
      "ˇ": 185,
      "ˈ": 186,
      "ː": 187,
      "ˠ": 188,
      "̇": 189,
      "ΐ": 190,
      "ά": 191,
      "έ": 192,
      "ή": 193,
      "ί": 194,
      "α": 195,
      "β": 196,
      "γ": 197,
      "δ": 198,
      "ε": 199,
      "ζ": 200,
      "η": 201,
      "θ": 202,
      "ι": 203,
      "κ": 204,
      "λ": 205,
      "μ": 206,
      "ν": 207,
      "ξ": 208,
      "ο": 209,
      "π": 210,
      "ρ": 211,
      "ς": 212,
      "σ": 213,
      "τ": 214,
      "υ": 215,
      "φ": 216,
      "χ": 217,
      "ψ": 218,
      "ω": 219,
      "ϊ": 220,
      "ό": 221,
      "ύ": 222,
      "ώ": 223,
      "ϝ": 224,
      "ϵ": 225,
      "а": 226,
      "б": 227,
      "в": 228,
      "г": 229,
      "д": 230,
      "е": 231,
      "ж": 232,
      "з": 233,
      "и": 234,
      "й": 235,
      "к": 236,
      "л": 237,
      "м": 238,
      "н": 239,
      "о": 240,
      "п": 241,
      "р": 242,
      "с": 243,
      "т": 244,
      "у": 245,
      "ф": 246,
      "х": 247,
      "ц": 248,
      "ч": 249,
      "ш": 250,
      "щ": 251,
      "ъ": 252,
      "ы": 253,
      "ь": 254,
      "э": 255,
      "ю": 256,
      "я": 257,
      "ё": 258,
      "і": 259,
      "ї": 260,
      "ј": 261,
      "ў": 262,
      "ҝ": 263,
      "ҹ": 264,
      "ә": 265,
      "ӝ": 266,
      "ա": 267,
      "բ": 268,
      "գ": 269,
      "դ": 270,
      "ե": 271,
      "է": 272,
      "թ": 273,
      "ի": 274,
      "լ": 275,
      "խ": 276,
      "ծ": 277,
      "կ": 278,
      "հ": 279,
      "ղ": 280,
      "մ": 281,
      "յ": 282,
      "ն": 283,
      "շ": 284,
      "ո": 285,
      "պ": 286,
      "ջ": 287,
      "ռ": 288,
      "ս": 289,
      "վ": 290,
      "տ": 291,
      "ր": 292,
      "ց": 293,
      "ւ": 294,
      "ք": 295,
      "օ": 296,
      "ֆ": 297,
      "և": 298,
      "א": 299,
      "ב": 300,
      "ג": 301,
      "ד": 302,
      "ה": 303,
      "ו": 304,
      "ז": 305,
      "ח": 306,
      "ט": 307,
      "י": 308,
      "ך": 309,
      "כ": 310,
      "ל": 311,
      "ם": 312,
      "מ": 313,
      "ן": 314,
      "נ": 315,
      "ס": 316,
      "ע": 317,
      "פ": 318,
      "ץ": 319,
      "צ": 320,
      "ק": 321,
      "ר": 322,
      "ש": 323,
      "ת": 324,
      "ء": 325,
      "آ": 326,
      "أ": 327,
      "ؤ": 328,
      "إ": 329,
      "ئ": 330,
      "ا": 331,
      "ب": 332,
      "ة": 333,
      "ت": 334,
      "ث": 335,
      "ج": 336,
      "ح": 337,
      "خ": 338,
      "د": 339,
      "ذ": 340,
      "ر": 341,
      "ز": 342,
      "س": 343,
      "ش": 344,
      "ص": 345,
      "ض": 346,
      "ط": 347,
      "ظ": 348,
      "ع": 349,
      "غ": 350,
      "ـ": 351,
      "ف": 352,
      "ق": 353,
      "ك": 354,
      "ل": 355,
      "م": 356,
      "ن": 357,
      "ه": 358,
      "و": 359,
      "ى": 360,
      "ي": 361,
      "٠": 362,
      "١": 363,
      "٢": 364,
      "٣": 365,
      "٤": 366,
      "٥": 367,
      "٦": 368,
      "٧": 369,
      "٨": 370,
      "٩": 371,
      "پ": 372,
      "ژ": 373,
      "ک": 374,
      "گ": 375,
      "ی": 376,
      "ܐ": 377,
      "ܓ": 378,
      "ܗ": 379,
      "ܙ": 380,
      "ܝ": 381,
      "ܠ": 382,
      "ܪ": 383,
      "अ": 384,
      "ऋ": 385,
      "क": 386,
      "च": 387,
      "ज": 388,
      "ट": 389,
      "त": 390,
      "द": 391,
      "न": 392,
      "प": 393,
      "म": 394,
      "य": 395,
      "र": 396,
      "ल": 397,
      "व": 398,
      "ष": 399,
      "स": 400,
      "ক": 401,
      "দ": 402,
      "ন": 403,
      "র": 404,
      "স": 405,
      "അ": 406,
      "ഇ": 407,
      "ക": 408,
      "ച": 409,
      "ട": 410,
      "ണ": 411,
      "യ": 412,
      "ര": 413,
      "ല": 414,
      "ള": 415,
      "സ": 416,
      "ช": 417,
      "บ": 418,
      "ม": 419,
      "ย": 420,
      "ร": 421,
      "อ": 422,
      "ะ": 423,
      "เ": 424,
      "ა": 425,
      "დ": 426,
      "ე": 427,
      "ლ": 428,
      "ნ": 429,
      "რ": 430,
      "ს": 431,
      "ქ": 432,
      "ᅀ": 433,
      "ሀ": 434,
      "ሁ": 435,
      "ሂ": 436,
      "ህ": 437,
      "ር": 438,
      "ስ": 439,
      "ን": 440,
      "እ": 441,
      "ክ": 442,
      "ድ": 443,
      "ᐱ": 444,
      "ᐳ": 445,
      "ᐸ": 446,
      "ᑎ": 447,
      "ᑐ": 448,
      "ᑕ": 449,
      "ᴀ": 450,
      "ᴥ": 451,
      "ᵄ": 452,
      "ᶏ": 453,
      "ᶐ": 454,
      "ᶛ": 455,
      "ḁ": 456,
      "ḇ": 457,
      "ḍ": 458,
      "ḏ": 459,
      "ḑ": 460,
      "ḗ": 461,
      "ḙ": 462,
      "ḥ": 463,
      "ḫ": 464,
      "ḯ": 465,
      "ḱ": 466,
      "ḳ": 467,
      "ḵ": 468,
      "ḷ": 469,
      "ṃ": 470,
      "ṅ": 471,
      "ṇ": 472,
      "ṓ": 473,
      "ṕ": 474,
      "ṗ": 475,
      "ṙ": 476,
      "ṛ": 477,
      "ṣ": 478,
      "ṫ": 479,
      "ṭ": 480,
      "ṯ": 481,
      "ẃ": 482,
      "ẅ": 483,
      "ẇ": 484,
      "ẉ": 485,
      "ẓ": 486,
      "ẚ": 487,
      "ạ": 488,
      "ả": 489,
      "ấ": 490,
      "ầ": 491,
      "ẩ": 492,
      "ẫ": 493,
      "ậ": 494,
      "ắ": 495,
      "ằ": 496,
      "ẳ": 497,
      "ẵ": 498,
      "ặ": 499,
      "ẻ": 500,
      "ẽ": 501,
      "ế": 502,
      "ể": 503,
      "ễ": 504,
      "ệ": 505,
      "ỉ": 506,
      "ị": 507,
      "ọ": 508,
      "ồ": 509,
      "ỗ": 510,
      "ộ": 511,
      "ớ": 512,
      "ờ": 513,
      "ợ": 514,
      "ữ": 515,
      "ỳ": 516,
      "ỷ": 517,
      "ἀ": 518,
      "ἁ": 519,
      "ἄ": 520,
      "ἅ": 521,
      "ἔ": 522,
      "ἠ": 523,
      "ἡ": 524,
      "ἥ": 525,
      "ἰ": 526,
      "ἱ": 527,
      "ἵ": 528,
      "ὀ": 529,
      "ὁ": 530,
      "ὐ": 531,
      "ὑ": 532,
      "ὗ": 533,
      "ὠ": 534,
      "ὥ": 535,
      "ὧ": 536,
      "ὰ": 537,
      "ὴ": 538,
      "ὶ": 539,
      "ὸ": 540,
      "ὺ": 541,
      "ᾰ": 542,
      "ᾱ": 543,
      "ᾶ": 544,
      "ῃ": 545,
      "ῆ": 546,
      "ῖ": 547,
      "ῥ": 548,
      "ῶ": 549,
      "₁": 550,
      "₂": 551,
      "₃": 552,
      "ℓ": 553,
      "⅓": 554,
      "①": 555,
      "⑤": 556,
      "ⱥ": 557,
      "ⱷ": 558,
      "ⲃ": 559,
      "ⲉ": 560,
      "ⲏ": 561,
      "ⲙ": 562,
      "ⲥ": 563,
      "ⲧ": 564,
      "ⲱ": 565,
      "か": 566,
      "き": 567,
      "く": 568,
      "け": 569,
      "こ": 570,
      "さ": 571,
      "と": 572,
      "な": 573,
      "の": 574,
      "ら": 575,
      "り": 576,
      "る": 577,
      "れ": 578,
      "ろ": 579,
      "わ": 580,
      "を": 581,
      "ア": 582,
      "イ": 583,
      "ェ": 584,
      "キ": 585,
      "グ": 586,
      "ケ": 587,
      "サ": 588,
      "ジ": 589,
      "ダ": 590,
      "ッ": 591,
      "テ": 592,
      "デ": 593,
      "ニ": 594,
      "ハ": 595,
      "バ": 596,
      "ヒ": 597,
      "ビ": 598,
      "メ": 599,
      "リ": 600,
      "ル": 601,
      "レ": 602,
      "ワ": 603,
      "ン": 604,
      "ー": 605,
      "ㄌ": 606,
      "ㄢ": 607,
      "ㄨ": 608,
      "一": 609,
      "三": 610,
      "久": 611,
      "二": 612,
      "亚": 613,
      "亞": 614,
      "京": 615,
      "人": 616,
      "伯": 617,
      "作": 618,
      "八": 619,
      "农": 620,
      "北": 621,
      "十": 622,
      "历": 623,
      "合": 624,
      "君": 625,
      "品": 626,
      "哲": 627,
      "国": 628,
      "垒": 629,
      "垣": 630,
      "埠": 631,
      "壁": 632,
      "士": 633,
      "大": 634,
      "天": 635,
      "夫": 636,
      "始": 637,
      "婁": 638,
      "学": 639,
      "安": 640,
      "家": 641,
      "宿": 642,
      "富": 643,
      "小": 644,
      "山": 645,
      "左": 646,
      "帝": 647,
      "康": 648,
      "建": 649,
      "得": 650,
      "拉": 651,
      "拓": 652,
      "文": 653,
      "方": 654,
      "日": 655,
      "時": 656,
      "晏": 657,
      "更": 658,
      "本": 659,
      "東": 660,
      "杵": 661,
      "林": 662,
      "校": 663,
      "楚": 664,
      "次": 665,
      "歴": 666,
      "歷": 667,
      "殖": 668,
      "泉": 669,
      "法": 670,
      "清": 671,
      "無": 672,
      "燕": 673,
      "爸": 674,
      "用": 675,
      "略": 676,
      "皇": 677,
      "盘": 678,
      "盛": 679,
      "盤": 680,
      "秦": 681,
      "算": 682,
      "節": 683,
      "緯": 684,
      "羽": 685,
      "胃": 686,
      "華": 687,
      "蠻": 688,
      "西": 689,
      "覧": 690,
      "語": 691,
      "論": 692,
      "讖": 693,
      "赫": 694,
      "趙": 695,
      "辰": 696,
      "農": 697,
      "連": 698,
      "金": 699,
      "锡": 700,
      "開": 701,
      "間": 702,
      "関": 703,
      "阵": 704,
      "陀": 705,
      "陰": 706,
      "際": 707,
      "青": 708,
      "韓": 709,
      "魏": 710,
      "魚": 711,
      "鮑": 712,
      "黄": 713,
      "齊": 714,
      "龍": 715,
      "龜": 716,
      "ꜣ": 717,
      "ꜹ": 718,
      "ꞻ": 719,
      "ꬱ": 720,
      "더": 721,
      "렉": 722,
      "목": 723,
      "산": 724,
      "수": 725,
      "식": 726,
      "알": 727,
      "일": 728,
      "주": 729,
      "충": 730,
      "판": 731,
      "𐀀": 732,
      "𐀅": 733,
      "𐀏": 734,
      "𐀩": 735,
      "𐀫": 736,
      "𐀭": 737,
      "𐌀": 738,
      "𐤀": 739,
      "𐤌": 740,
      "𐤍": 741,
      "𐤏": 742,
      "𑀅": 743,
      "𑀓": 744,
      "𑀲": 745,
      "𓅓": 746,
      "𓆎": 747,
      "𓊖": 748,
      "𓏏": 749,
      "th": 750,
      "in": 751,
      "an": 752,
      "er": 753,
      "the": 754,
      "on": 755,
      "re": 756,
      "al": 757,
      "at": 758,
      "en": 759,
      "ed": 760,
      "or": 761,
      "is": 762,
      "ar": 763,
      "es": 764,
      "of": 765,
      "as": 766,
      "and": 767,
      "ic": 768,
      "it": 769,
      "to": 770,
      "ro": 771,
      "ing": 772,
      "ion": 773,
      "st": 774,
      "le": 775,
      "ch": 776,
      "ou": 777,
      "am": 778,
      "ent": 779,
      "ac": 780,
      "se": 781,
      "il": 782,
      "de": 783,
      "ol": 784,
      "om": 785,
      "be": 786,
      "ly": 787,
      "ad": 788,
      "ur": 789,
      "for": 790,
      "us": 791,
      "ter": 792,
      "ve": 793,
      "19": 794,
      "un": 795,
      "im": 796,
      "ation": 797,
      "ct": 798,
      "con": 799,
      "ig": 800,
      "wh": 801,
      "ir": 802,
      "lo": 803,
      "ce": 804,
      "ver": 805,
      "ap": 806,
      "ab": 807,
      "id": 808,
      "ag": 809,
      "was": 810,
      "ist": 811,
      "ith": 812,
      "ul": 813,
      "he": 814,
      "mo": 815,
      "by": 816,
      "pro": 817,
      "ay": 818,
      "com": 819,
      "no": 820,
      "ri": 821,
      "em": 822,
      "with": 823,
      "ut": 824,
      "res": 825,
      "ex": 826,
      "pe": 827,
      "su": 828,
      "ther": 829,
      "that": 830,
      "are": 831,
      "po": 832,
      "ian": 833,
      "el": 834,
      "et": 835,
      "ers": 836,
      "pl": 837,
      "rom": 838,
      "um": 839,
      "so": 840,
      "20": 841,
      "di": 842,
      "ain": 843,
      "all": 844,
      "est": 845,
      "ant": 846,
      "ne": 847,
      "tr": 848,
      "au": 849,
      "li": 850,
      "ish": 851,
      "ate": 852,
      "ph": 853,
      "ci": 854,
      "per": 855,
      "from": 856,
      "oun": 857,
      "his": 858,
      "co": 859,
      "art": 860,
      "ity": 861,
      "cl": 862,
      "ere": 863,
      "qu": 864,
      "af": 865,
      "man": 866,
      "ich": 867,
      "act": 868,
      "ess": 869,
      "sh": 870,
      "ment": 871,
      "ical": 872,
      "ber": 873,
      "te": 874,
      "igh": 875,
      "ies": 876,
      "ive": 877,
      "du": 878,
      "bo": 879,
      "ia": 880,
      "ated": 881,
      "ge": 882,
      "der": 883,
      "wor": 884,
      "ill": 885,
      "ts": 886,
      "ak": 887,
      "ld": 888,
      "gh": 889,
      "ican": 890,
      "ha": 891,
      "ple": 892,
      "we": 893,
      "which": 894,
      "18": 895,
      "fe": 896,
      "ard": 897,
      "ine": 898,
      "br": 899,
      "por": 900,
      "amer": 901,
      "not": 902,
      "str": 903,
      "one": 904,
      "pr": 905,
      "ear": 906,
      "od": 907,
      "were": 908,
      "pt": 909,
      "our": 910,
      "ass": 911,
      "ary": 912,
      "gr": 913,
      "end": 914,
      "ure": 915,
      "iv": 916,
      "av": 917,
      "this": 918,
      "if": 919,
      "00": 920,
      "ions": 921,
      "wn": 922,
      "ud": 923,
      "ma": 924,
      "american": 925,
      "ast": 926,
      "cent": 927,
      "form": 928,
      "ang": 929,
      "but": 930,
      "other": 931,
      "ame": 932,
      "ous": 933,
      "its": 934,
      "ong": 935,
      "ans": 936,
      "up": 937,
      "ally": 938,
      "pres": 939,
      "me": 940,
      "fo": 941,
      "also": 942,
      "bl": 943,
      "out": 944,
      "age": 945,
      "fer": 946,
      "ot": 947,
      "had": 948,
      "low": 949,
      "ach": 950,
      "can": 951,
      "iz": 952,
      "sp": 953,
      "have": 954,
      "cre": 955,
      "ks": 956,
      "mar": 957,
      "ke": 958,
      "vi": 959,
      "rit": 960,
      "eng": 961,
      "cont": 962,
      "ser": 963,
      "sy": 964,
      "mon": 965,
      "fir": 966,
      "ence": 967,
      "og": 968,
      "pol": 969,
      "ign": 970,
      "part": 971,
      "port": 972,
      "ho": 973,
      "red": 974,
      "has": 975,
      "ev": 976,
      "cor": 977,
      "ult": 978,
      "over": 979,
      "ound": 980,
      "ory": 981,
      "ight": 982,
      "dis": 983,
      "their": 984,
      "ome": 985,
      "ace": 986,
      "ip": 987,
      "ations": 988,
      "land": 989,
      "first": 990,
      "gen": 991,
      "aw": 992,
      "gre": 993,
      "ial": 994,
      "ction": 995,
      "ates": 996,
      "ould": 997,
      "pos": 998,
      "do": 999,
      "pre": 1000,
      "ib": 1001,
      "ren": 1002,
      "ater": 1003,
      "new": 1004,
      "201": 1005,
      "col": 1006,
      "200": 1007,
      "ide": 1008,
      "des": 1009,
      "ition": 1010,
      "cr": 1011,
      "comp": 1012,
      "att": 1013,
      "inter": 1014,
      "ces": 1015,
      "tw": 1016,
      "spe": 1017,
      "min": 1018,
      "who": 1019,
      "used": 1020,
      "ack": 1021,
      "op": 1022,
      "ll": 1023,
      "int": 1024,
      "they": 1025,
      "able": 1026,
      "most": 1027,
      "tim": 1028,
      "after": 1029,
      "fl": 1030,
      "her": 1031,
      "car": 1032,
      "incl": 1033,
      "gu": 1034,
      "je": 1035,
      "war": 1036,
      "been": 1037,
      "os": 1038,
      "ell": 1039,
      "ger": 1040,
      "ten": 1041,
      "ice": 1042,
      "play": 1043,
      "vers": 1044,
      "fr": 1045,
      "ite": 1046,
      "year": 1047,
      "jo": 1048,
      "lish": 1049,
      "some": 1050,
      "comm": 1051,
      "gro": 1052,
      "ance": 1053,
      "nor": 1054,
      "bas": 1055,
      "ced": 1056,
      "ile": 1057,
      "cess": 1058,
      "ele": 1059,
      "king": 1060,
      "ath": 1061,
      "more": 1062,
      "ding": 1063,
      "coun": 1064,
      "such": 1065,
      "ys": 1066,
      "199": 1067,
      "ra": 1068,
      "arm": 1069,
      "fin": 1070,
      "arch": 1071,
      "ism": 1072,
      "pu": 1073,
      "produ": 1074,
      "air": 1075,
      "uring": 1076,
      "ef": 1077,
      "sch": 1078,
      "ough": 1079,
      "ited": 1080,
      "ty": 1081,
      "par": 1082,
      "ors": 1083,
      "ics": 1084,
      "there": 1085,
      "198": 1086,
      "writ": 1087,
      "ens": 1088,
      "17": 1089,
      "ents": 1090,
      "ational": 1091,
      "olog": 1092,
      "197": 1093,
      "ons": 1094,
      "bet": 1095,
      "rel": 1096,
      "fic": 1097,
      "med": 1098,
      "two": 1099,
      "bec": 1100,
      "ry": 1101,
      "ury": 1102,
      "use": 1103,
      "many": 1104,
      "reg": 1105,
      "publ": 1106,
      "than": 1107,
      "ved": 1108,
      "when": 1109,
      "into": 1110,
      "als": 1111,
      "hist": 1112,
      "day": 1113,
      "ugh": 1114,
      "196": 1115,
      "cons": 1116,
      "les": 1117,
      "ck": 1118,
      "tern": 1119,
      "may": 1120,
      "ds": 1121,
      "them": 1122,
      "kno": 1123,
      "iss": 1124,
      "ire": 1125,
      "ins": 1126,
      "ann": 1127,
      "oc": 1128,
      "ative": 1129,
      "ict": 1130,
      "ade": 1131,
      "ular": 1132,
      "time": 1133,
      "ari": 1134,
      "sou": 1135,
      "lar": 1136,
      "ok": 1137,
      "ii": 1138,
      "includ": 1139,
      "rough": 1140,
      "vis": 1141,
      "main": 1142,
      "during": 1143,
      "ree": 1144,
      "sub": 1145,
      "then": 1146,
      "char": 1147,
      "fore": 1148,
      "him": 1149,
      "num": 1150,
      "would": 1151,
      "english": 1152,
      "16": 1153,
      "ue": 1154,
      "cer": 1155,
      "lin": 1156,
      "az": 1157,
      "these": 1158,
      "national": 1159,
      "cur": 1160,
      "ie": 1161,
      "world": 1162,
      "15": 1163,
      "high": 1164,
      "ob": 1165,
      "only": 1166,
      "any": 1167,
      "gener": 1168,
      "cal": 1169,
      "under": 1170,
      "old": 1171,
      "century": 1172,
      "work": 1173,
      "bu": 1174,
      "stem": 1175,
      "trans": 1176,
      "ah": 1177,
      "194": 1178,
      "though": 1179,
      "states": 1180,
      "ind": 1181,
      "ters": 1182,
      "vol": 1183,
      "urn": 1184,
      "polit": 1185,
      "cted": 1186,
      "ball": 1187,
      "soci": 1188,
      "cap": 1189,
      "ween": 1190,
      "between": 1191,
      "found": 1192,
      "go": 1193,
      "hy": 1194,
      "dif": 1195,
      "system": 1196,
      "la": 1197,
      "uni": 1198,
      "ste": 1199,
      "ase": 1200,
      "known": 1201,
      "gan": 1202,
      "very": 1203,
      "where": 1204,
      "peo": 1205,
      "cri": 1206,
      "bor": 1207,
      "ital": 1208,
      "sel": 1209,
      "sing": 1210,
      "call": 1211,
      "ities": 1212,
      "tain": 1213,
      "ists": 1214,
      "ied": 1215,
      "ext": 1216,
      "dr": 1217,
      "ted": 1218,
      "ail": 1219,
      "fol": 1220,
      "lop": 1221,
      "ince": 1222,
      "sup": 1223,
      "cy": 1224,
      "ating": 1225,
      "ual": 1226,
      "while": 1227,
      "io": 1228,
      "way": 1229,
      "cond": 1230,
      "sol": 1231,
      "about": 1232,
      "ful": 1233,
      "ium": 1234,
      "193": 1235,
      "und": 1236,
      "ax": 1237,
      "ician": 1238,
      "195": 1239,
      "tri": 1240,
      "10": 1241,
      "set": 1242,
      "through": 1243,
      "led": 1244,
      "sur": 1245,
      "val": 1246,
      "fil": 1247,
      "sm": 1248,
      "angu": 1249,
      "city": 1250,
      "bro": 1251,
      "well": 1252,
      "12": 1253,
      "years": 1254,
      "ms": 1255,
      "met": 1256,
      "state": 1257,
      "ident": 1258,
      "people": 1259,
      "later": 1260,
      "pers": 1261,
      "cts": 1262,
      "vel": 1263,
      "ric": 1264,
      "pop": 1265,
      "she": 1266,
      "ust": 1267,
      "united": 1268,
      "mem": 1269,
      "ae": 1270,
      "ix": 1271,
      "speci": 1272,
      "langu": 1273,
      "son": 1274,
      "sim": 1275,
      "grap": 1276,
      "ake": 1277,
      "chr": 1278,
      "ving": 1279,
      "leg": 1280,
      "dire": 1281,
      "ress": 1282,
      "ily": 1283,
      "stru": 1284,
      "phil": 1285,
      "follow": 1286,
      "dist": 1287,
      "ars": 1288,
      "ings": 1289,
      "ments": 1290,
      "deve": 1291,
      "eu": 1292,
      "ause": 1293,
      "develop": 1294,
      "192": 1295,
      "like": 1296,
      "gy": 1297,
      "gover": 1298,
      "ca": 1299,
      "14": 1300,
      "ific": 1301,
      "my": 1302,
      "present": 1303,
      "mus": 1304,
      "ow": 1305,
      "group": 1306,
      "joh": 1307,
      "pri": 1308,
      "ret": 1309,
      "again": 1310,
      "ton": 1311,
      "vari": 1312,
      "add": 1313,
      "gree": 1314,
      "ures": 1315,
      "thor": 1316,
      "nam": 1317,
      "ages": 1318,
      "ude": 1319,
      "vid": 1320,
      "ship": 1321,
      "peri": 1322,
      "13": 1323,
      "amp": 1324,
      "howe": 1325,
      "mer": 1326,
      "cle": 1327,
      "press": 1328,
      "serv": 1329,
      "wer": 1330,
      "ution": 1331,
      "sign": 1332,
      "however": 1333,
      "univers": 1334,
      "ort": 1335,
      "both": 1336,
      "ural": 1337,
      "early": 1338,
      "dep": 1339,
      "ized": 1340,
      "sa": 1341,
      "urch": 1342,
      "off": 1343,
      "brit": 1344,
      "made": 1345,
      "alex": 1346,
      "elect": 1347,
      "called": 1348,
      "mil": 1349,
      "exam": 1350,
      "including": 1351,
      "fam": 1352,
      "ise": 1353,
      "foot": 1354,
      "buil": 1355,
      "uss": 1356,
      "tre": 1357,
      "john": 1358,
      "long": 1359,
      "differ": 1360,
      "being": 1361,
      "number": 1362,
      "hol": 1363,
      "ically": 1364,
      "ep": 1365,
      "ick": 1366,
      "ually": 1367,
      "ven": 1368,
      "miss": 1369,
      "own": 1370,
      "ss": 1371,
      "oper": 1372,
      "ature": 1373,
      "refer": 1374,
      "ider": 1375,
      "law": 1376,
      "emp": 1377,
      "cept": 1378,
      "south": 1379,
      "orig": 1380,
      "sever": 1381,
      "three": 1382,
      "suc": 1383,
      "public": 1384,
      "apol": 1385,
      "appe": 1386,
      "ale": 1387,
      "vent": 1388,
      "line": 1389,
      "dy": 1390,
      "ose": 1391,
      "ble": 1392,
      "read": 1393,
      "ese": 1394,
      "contin": 1395,
      "ward": 1396,
      "author": 1397,
      "ology": 1398,
      "iel": 1399,
      "dom": 1400,
      "ences": 1401,
      "since": 1402,
      "ru": 1403,
      "direct": 1404,
      "unt": 1405,
      "bert": 1406,
      "cour": 1407,
      "ank": 1408,
      "ants": 1409,
      "cient": 1410,
      "became": 1411,
      "gest": 1412,
      "vie": 1413,
      "austr": 1414,
      "ible": 1415,
      "ai": 1416,
      "church": 1417,
      "mat": 1418,
      "second": 1419,
      "ians": 1420,
      "ier": 1421,
      "requ": 1422,
      "austral": 1423,
      "see": 1424,
      "less": 1425,
      "death": 1426,
      "rench": 1427,
      "german": 1428,
      "player": 1429,
      "comple": 1430,
      "ety": 1431,
      "lead": 1432,
      "name": 1433,
      "ility": 1434,
      "class": 1435,
      "bers": 1436,
      "football": 1437,
      "apollo": 1438,
      "because": 1439,
      "mic": 1440,
      "gram": 1441,
      "before": 1442,
      "life": 1443,
      "hum": 1444,
      "history": 1445,
      "origin": 1446,
      "design": 1447,
      "french": 1448,
      "ond": 1449,
      "mu": 1450,
      "ander": 1451,
      "let": 1452,
      "bar": 1453,
      "fa": 1454,
      "govern": 1455,
      "lit": 1456,
      "stit": 1457,
      "sk": 1458,
      "self": 1459,
      "jor": 1460,
      "pat": 1461,
      "moder": 1462,
      "common": 1463,
      "north": 1464,
      "ject": 1465,
      "christ": 1466,
      "accor": 1467,
      "del": 1468,
      "partic": 1469,
      "ished": 1470,
      "ves": 1471,
      "could": 1472,
      "jan": 1473,
      "que": 1474,
      "ius": 1475,
      "based": 1476,
      "ze": 1477,
      "university": 1478,
      "mark": 1479,
      "stand": 1480,
      "fact": 1481,
      "mill": 1482,
      "euro": 1483,
      "against": 1484,
      "commun": 1485,
      "order": 1486,
      "often": 1487,
      "histor": 1488,
      "clo": 1489,
      "0s": 1490,
      "will": 1491,
      "cro": 1492,
      "ner": 1493,
      "several": 1494,
      "view": 1495,
      "ave": 1496,
      "exp": 1497,
      "ange": 1498,
      "arab": 1499,
      "sco": 1500,
      "ning": 1501,
      "cas": 1502,
      "organ": 1503,
      "success": 1504,
      "anim": 1505,
      "four": 1506,
      "general": 1507,
      "alf": 1508,
      "fect": 1509,
      "large": 1510,
      "modern": 1511,
      "back": 1512,
      "ool": 1513,
      "ord": 1514,
      "appro": 1515,
      "ild": 1516,
      "same": 1517,
      "flu": 1518,
      "ox": 1519,
      "british": 1520,
      "bed": 1521,
      "190": 1522,
      "contro": 1523,
      "sal": 1524,
      "gust": 1525,
      "bre": 1526,
      "major": 1527,
      "politician": 1528,
      "each": 1529,
      "trad": 1530,
      "great": 1531,
      "mag": 1532,
      "language": 1533,
      "ious": 1534,
      "sw": 1535,
      "bur": 1536,
      "tech": 1537,
      "ator": 1538,
      "now": 1539,
      "europe": 1540,
      "ared": 1541,
      "soph": 1542,
      "power": 1543,
      "aim": 1544,
      "ional": 1545,
      "ub": 1546,
      "consider": 1547,
      "bus": 1548,
      "tal": 1549,
      "11": 1550,
      "point": 1551,
      "come": 1552,
      "thern": 1553,
      "roman": 1554,
      "lu": 1555,
      "non": 1556,
      "lim": 1557,
      "equ": 1558,
      "charac": 1559,
      "god": 1560,
      "august": 1561,
      "using": 1562,
      "rad": 1563,
      "according": 1564,
      "ute": 1565,
      "school": 1566,
      "small": 1567,
      "support": 1568,
      "giv": 1569,
      "top": 1570,
      "cult": 1571,
      "film": 1572,
      "writer": 1573,
      "cul": 1574,
      "ron": 1575,
      "although": 1576,
      "dec": 1577,
      "vil": 1578,
      "ash": 1579,
      "different": 1580,
      "har": 1581,
      "ting": 1582,
      "descri": 1583,
      "example": 1584,
      "bc": 1585,
      "techn": 1586,
      "win": 1587,
      "ids": 1588,
      "loc": 1589,
      "ley": 1590,
      "depend": 1591,
      "fun": 1592,
      "stri": 1593,
      "ased": 1594,
      "lat": 1595,
      "prim": 1596,
      "hel": 1597,
      "test": 1598,
      "offic": 1599,
      "west": 1600,
      "remain": 1601,
      "among": 1602,
      "greek": 1603,
      "incre": 1604,
      "program": 1605,
      "indi": 1606,
      "bel": 1607,
      "until": 1608,
      "bal": 1609,
      "person": 1610,
      "tro": 1611,
      "ina": 1612,
      "plac": 1613,
      "born": 1614,
      "resp": 1615,
      "even": 1616,
      "poss": 1617,
      "near": 1618,
      "mor": 1619,
      "men": 1620,
      "philo": 1621,
      "aft": 1622,
      "aking": 1623,
      "ended": 1624,
      "acade": 1625,
      "government": 1626,
      "phys": 1627,
      "did": 1628,
      "mber": 1629,
      "den": 1630,
      "atic": 1631,
      "aster": 1632,
      "uc": 1633,
      "ik": 1634,
      "cover": 1635,
      "philosoph": 1636,
      "wil": 1637,
      "beli": 1638,
      "tit": 1639,
      "stud": 1640,
      "000": 1641,
      "space": 1642,
      "those": 1643,
      "ived": 1644,
      "allow": 1645,
      "pa": 1646,
      "milit": 1647,
      "book": 1648,
      "canad": 1649,
      "colle": 1650,
      "ples": 1651,
      "ban": 1652,
      "ulation": 1653,
      "ames": 1654,
      "tem": 1655,
      "ham": 1656,
      "period": 1657,
      "tle": 1658,
      "vision": 1659,
      "ref": 1660,
      "omet": 1661,
      "following": 1662,
      "estab": 1663,
      "uary": 1664,
      "around": 1665,
      "eas": 1666,
      "ica": 1667,
      "ines": 1668,
      "another": 1669,
      "establish": 1670,
      "posed": 1671,
      "econ": 1672,
      "app": 1673,
      "ides": 1674,
      "vir": 1675,
      "ason": 1676,
      "aut": 1677,
      "stat": 1678,
      "nat": 1679,
      "light": 1680,
      "econom": 1681,
      "vo": 1682,
      "ister": 1683,
      "include": 1684,
      "mass": 1685,
      "water": 1686,
      "open": 1687,
      "astr": 1688,
      "cture": 1689,
      "anal": 1690,
      "arg": 1691,
      "nal": 1692,
      "sem": 1693,
      "ired": 1694,
      "pass": 1695,
      "lands": 1696,
      "fur": 1697,
      "itions": 1698,
      "ral": 1699,
      "ane": 1700,
      "alexander": 1701,
      "recor": 1702,
      "na": 1703,
      "what": 1704,
      "series": 1705,
      "child": 1706,
      "result": 1707,
      "process": 1708,
      "batt": 1709,
      "mid": 1710,
      "head": 1711,
      "due": 1712,
      "hou": 1713,
      "ribut": 1714,
      "van": 1715,
      "inv": 1716,
      "ness": 1717,
      "roy": 1718,
      "much": 1719,
      "put": 1720,
      "graph": 1721,
      "search": 1722,
      "ws": 1723,
      "fiel": 1724,
      "25": 1725,
      "import": 1726,
      "bin": 1727,
      "continu": 1728,
      "21": 1729,
      "just": 1730,
      "area": 1731,
      "international": 1732,
      "indu": 1733,
      "try": 1734,
      "craft": 1735,
      "died": 1736,
      "189": 1737,
      "ement": 1738,
      "sen": 1739,
      "crit": 1740,
      "works": 1741,
      "treat": 1742,
      "net": 1743,
      "influ": 1744,
      "loy": 1745,
      "show": 1746,
      "sum": 1747,
      "gin": 1748,
      "camp": 1749,
      "mot": 1750,
      "ore": 1751,
      "place": 1752,
      "return": 1753,
      "associ": 1754,
      "russ": 1755,
      "pal": 1756,
      "def": 1757,
      "bi": 1758,
      "ices": 1759,
      "position": 1760,
      "list": 1761,
      "wes": 1762,
      "ization": 1763,
      "ilar": 1764,
      "hand": 1765,
      "human": 1766,
      "compu": 1767,
      "bit": 1768,
      "liam": 1769,
      "thod": 1770,
      "ka": 1771,
      "tt": 1772,
      "imate": 1773,
      "acks": 1774,
      "similar": 1775,
      "ones": 1776,
      "action": 1777,
      "ps": 1778,
      "186": 1779,
      "chem": 1780,
      "ark": 1781,
      "bir": 1782,
      "president": 1783,
      "ju": 1784,
      "family": 1785,
      "term": 1786,
      "ards": 1787,
      "ft": 1788,
      "cus": 1789,
      "ths": 1790,
      "ster": 1791,
      "ama": 1792,
      "mal": 1793,
      "wom": 1794,
      "within": 1795,
      "claim": 1796,
      "rele": 1797,
      "key": 1798,
      "military": 1799,
      "formed": 1800,
      "dro": 1801,
      "educ": 1802,
      "typ": 1803,
      "apple": 1804,
      "tele": 1805,
      "relig": 1806,
      "last": 1807,
      "ights": 1808,
      "million": 1809,
      "defin": 1810,
      "australian": 1811,
      "still": 1812,
      "ped": 1813,
      "actor": 1814,
      "tradition": 1815,
      "stu": 1816,
      "sto": 1817,
      "ben": 1818,
      "ison": 1819,
      "ised": 1820,
      "river": 1821,
      "ives": 1822,
      "ize": 1823,
      "jap": 1824,
      "arian": 1825,
      "ont": 1826,
      "astron": 1827,
      "began": 1828,
      "rian": 1829,
      "mean": 1830,
      "iness": 1831,
      "ali": 1832,
      "arr": 1833,
      "real": 1834,
      "istic": 1835,
      "thir": 1836,
      "rest": 1837,
      "30": 1838,
      "character": 1839,
      "ried": 1840,
      "lam": 1841,
      "fed": 1842,
      "ony": 1843,
      "house": 1844,
      "run": 1845,
      "father": 1846,
      "represent": 1847,
      "considered": 1848,
      "ancient": 1849,
      "civil": 1850,
      "yor": 1851,
      "further": 1852,
      "prof": 1853,
      "thus": 1854,
      "gl": 1855,
      "along": 1856,
      "published": 1857,
      "short": 1858,
      "acy": 1859,
      "footballer": 1860,
      "former": 1861,
      "rece": 1862,
      "ene": 1863,
      "contain": 1864,
      "vide": 1865,
      "japan": 1866,
      "ports": 1867,
      "addition": 1868,
      "mission": 1869,
      "188": 1870,
      "down": 1871,
      "mit": 1872,
      "rich": 1873,
      "right": 1874,
      "army": 1875,
      "face": 1876,
      "ov": 1877,
      "fran": 1878,
      "pot": 1879,
      "body": 1880,
      "jour": 1881,
      "sour": 1882,
      "ified": 1883,
      "given": 1884,
      "plic": 1885,
      "opt": 1886,
      "pain": 1887,
      "sym": 1888,
      "battle": 1889,
      "late": 1890,
      "alk": 1891,
      "anti": 1892,
      "bs": 1893,
      "ctive": 1894,
      "effect": 1895,
      "ler": 1896,
      "gn": 1897,
      "said": 1898,
      "wide": 1899,
      "ently": 1900,
      "ability": 1901,
      "control": 1902,
      "atom": 1903,
      "start": 1904,
      "kill": 1905,
      "dan": 1906,
      "every": 1907,
      "particular": 1908,
      "activ": 1909,
      "western": 1910,
      "sequ": 1911,
      "50": 1912,
      "cu": 1913,
      "cum": 1914,
      "members": 1915,
      "move": 1916,
      "court": 1917,
      "aur": 1918,
      "sci": 1919,
      "various": 1920,
      "eth": 1921,
      "base": 1922,
      "building": 1923,
      "ets": 1924,
      "lab": 1925,
      "ably": 1926,
      "alg": 1927,
      "union": 1928,
      "popular": 1929,
      "research": 1930,
      "dies": 1931,
      "une": 1932,
      "24": 1933,
      "east": 1934,
      "home": 1935,
      "curren": 1936,
      "york": 1937,
      "plan": 1938,
      "tur": 1939,
      "named": 1940,
      "case": 1941,
      "alth": 1942,
      "times": 1943,
      "country": 1944,
      "issu": 1945,
      "feder": 1946,
      "population": 1947,
      "political": 1948,
      "company": 1949,
      "athen": 1950,
      "unch": 1951,
      "inste": 1952,
      "augh": 1953,
      "business": 1954,
      "proper": 1955,
      "empire": 1956,
      "ril": 1957,
      "music": 1958,
      "report": 1959,
      "provid": 1960,
      "pract": 1961,
      "took": 1962,
      "187": 1963,
      "development": 1964,
      "pur": 1965,
      "tra": 1966,
      "formation": 1967,
      "independ": 1968,
      "pen": 1969,
      "ays": 1970,
      "production": 1971,
      "rican": 1972,
      "rote": 1973,
      "ctions": 1974,
      "field": 1975,
      "ctor": 1976,
      "audi": 1977,
      "important": 1978,
      "need": 1979,
      "fac": 1980,
      "without": 1981,
      "ken": 1982,
      "ague": 1983,
      "cut": 1984,
      "prote": 1985,
      "wrote": 1986,
      "christian": 1987,
      "ug": 1988,
      "intro": 1989,
      "constru": 1990,
      "tak": 1991,
      "introdu": 1992,
      "ories": 1993,
      "pha": 1994,
      "imes": 1995,
      "theory": 1996,
      "town": 1997,
      "geor": 1998,
      "ino": 1999,
      "ata": 2000,
      "23": 2001,
      "tom": 2002,
      "model": 2003,
      "local": 2004,
      "sug": 2005,
      "engine": 2006,
      "team": 2007,
      "exist": 2008,
      "feat": 2009,
      "init": 2010,
      "ival": 2011,
      "left": 2012,
      "dam": 2013,
      "mult": 2014,
      "bell": 2015,
      "hen": 2016,
      "sty": 2017,
      "side": 2018,
      "word": 2019,
      "ological": 2020,
      "ged": 2021,
      "albert": 2022,
      "manag": 2023,
      "ially": 2024,
      "wo": 2025,
      "armen": 2026,
      "bes": 2027,
      "vict": 2028,
      "ded": 2029,
      "syn": 2030,
      "languages": 2031,
      "ways": 2032,
      "atl": 2033,
      "sea": 2034,
      "force": 2035,
      "strong": 2036,
      "cript": 2037,
      "ram": 2038,
      "themat": 2039,
      "aves": 2040,
      "written": 2041,
      "uses": 2042,
      "dest": 2043,
      "gress": 2044,
      "bol": 2045,
      "sam": 2046,
      "instit": 2047,
      "canadian": 2048,
      "ither": 2049,
      "prin": 2050,
      "forms": 2051,
      "become": 2052,
      "mathemat": 2053,
      "yl": 2054,
      "developed": 2055,
      "systems": 2056,
      "graphy": 2057,
      "bud": 2058,
      "cir": 2059,
      "rul": 2060,
      "black": 2061,
      "natural": 2062,
      "make": 2063,
      "ues": 2064,
      "youn": 2065,
      "others": 2066,
      "built": 2067,
      "william": 2068,
      "ung": 2069,
      "earth": 2070,
      "sent": 2071,
      "species": 2072,
      "liter": 2073,
      "dav": 2074,
      "moun": 2075,
      "included": 2076,
      "references": 2077,
      "ality": 2078,
      "april": 2079,
      "els": 2080,
      "viet": 2081,
      "ris": 2082,
      "largest": 2083,
      "academic": 2084,
      "bish": 2085,
      "ental": 2086,
      "sat": 2087,
      "computer": 2088,
      "turn": 2089,
      "march": 2090,
      "african": 2091,
      "chang": 2092,
      "poet": 2093,
      "method": 2094,
      "ency": 2095,
      "medi": 2096,
      "novel": 2097,
      "event": 2098,
      "lines": 2099,
      "conne": 2100,
      "boo": 2101,
      "isto": 2102,
      "ternal": 2103,
      "ites": 2104,
      "fre": 2105,
      "anch": 2106,
      "hor": 2107,
      "usually": 2108,
      "cing": 2109,
      "scient": 2110,
      "free": 2111,
      "forces": 2112,
      "istan": 2113,
      "region": 2114,
      "level": 2115,
      "empt": 2116,
      "type": 2117,
      "having": 2118,
      "care": 2119,
      "mac": 2120,
      "cath": 2121,
      "vin": 2122,
      "held": 2123,
      "produced": 2124,
      "ener": 2125,
      "occur": 2126,
      "somet": 2127,
      "social": 2128,
      "suggest": 2129,
      "bon": 2130,
      "neg": 2131,
      "dou": 2132,
      "ned": 2133,
      "central": 2134,
      "established": 2135,
      "ling": 2136,
      "journal": 2137,
      "40": 2138,
      "log": 2139,
      "service": 2140,
      "los": 2141,
      "ford": 2142,
      "aren": 2143,
      "uk": 2144,
      "fort": 2145,
      "proble": 2146,
      "berg": 2147,
      "original": 2148,
      "best": 2149,
      "fig": 2150,
      "mater": 2151,
      "revol": 2152,
      "separ": 2153,
      "post": 2154,
      "third": 2155,
      "ential": 2156,
      "current": 2157,
      "band": 2158,
      "invol": 2159,
      "five": 2160,
      "change": 2161,
      "2014": 2162,
      "sept": 2163,
      "groups": 2164,
      "grow": 2165,
      "cil": 2166,
      "cell": 2167,
      "party": 2168,
      "22": 2169,
      "hom": 2170,
      "italian": 2171,
      "how": 2172,
      "thing": 2173,
      "stant": 2174,
      "2013": 2175,
      "bishop": 2176,
      "bill": 2177,
      "version": 2178,
      "redu": 2179,
      "pho": 2180,
      "territ": 2181,
      "white": 2182,
      "2012": 2183,
      "fall": 2184,
      "song": 2185,
      "reco": 2186,
      "tries": 2187,
      "dut": 2188,
      "ained": 2189,
      "ta": 2190,
      "tract": 2191,
      "covered": 2192,
      "sc": 2193,
      "cial": 2194,
      "few": 2195,
      "crew": 2196,
      "minister": 2197,
      "southern": 2198,
      "thcentury": 2199,
      "idence": 2200,
      "arabic": 2201,
      "external": 2202,
      "clear": 2203,
      "blo": 2204,
      "director": 2205,
      "dece": 2206,
      "launch": 2207,
      "children": 2208,
      "suf": 2209,
      "sometimes": 2210,
      "count": 2211,
      "lun": 2212,
      "cially": 2213,
      "england": 2214,
      "lower": 2215,
      "certain": 2216,
      "came": 2217,
      "eg": 2218,
      "decl": 2219,
      "olic": 2220,
      "european": 2221,
      "2000": 2222,
      "termin": 2223,
      "cast": 2224,
      "schol": 2225,
      "individ": 2226,
      "ured": 2227,
      "kingdom": 2228,
      "far": 2229,
      "alpha": 2230,
      "half": 2231,
      "anth": 2232,
      "study": 2233,
      "aries": 2234,
      "cho": 2235,
      "abo": 2236,
      "official": 2237,
      "single": 2238,
      "wood": 2239,
      "cup": 2240,
      "don": 2241,
      "flight": 2242,
      "ificant": 2243,
      "egy": 2244,
      "countries": 2245,
      "russian": 2246,
      "100": 2247,
      "ember": 2248,
      "exper": 2249,
      "six": 2250,
      "wall": 2251,
      "enter": 2252,
      "meas": 2253,
      "fle": 2254,
      "espe": 2255,
      "emper": 2256,
      "never": 2257,
      "served": 2258,
      "hard": 2259,
      "ias": 2260,
      "iii": 2261,
      "september": 2262,
      "ination": 2263,
      "eved": 2264,
      "indian": 2265,
      "significant": 2266,
      "tex": 2267,
      "america": 2268,
      "tic": 2269,
      "placed": 2270,
      "mach": 2271,
      "aust": 2272,
      "take": 2273,
      "board": 2274,
      "reach": 2275,
      "nav": 2276,
      "spir": 2277,
      "earli": 2278,
      "function": 2279,
      "lunar": 2280,
      "scre": 2281,
      "should": 2282,
      "erb": 2283,
      "does": 2284,
      "hip": 2285,
      "wards": 2286,
      "egypt": 2287,
      "span": 2288,
      "northern": 2289,
      "ats": 2290,
      "ghan": 2291,
      "compan": 2292,
      "royal": 2293,
      "jud": 2294,
      "material": 2295,
      "py": 2296,
      "2015": 2297,
      "adv": 2298,
      "league": 2299,
      "ient": 2300,
      "mart": 2301,
      "mos": 2302,
      "appear": 2303,
      "described": 2304,
      "possible": 2305,
      "sof": 2306,
      "wal": 2307,
      "jects": 2308,
      "nu": 2309,
      "thes": 2310,
      "created": 2311,
      "july": 2312,
      "aircraft": 2313,
      "good": 2314,
      "get": 2315,
      "ration": 2316,
      "transl": 2317,
      "ously": 2318,
      "heav": 2319,
      "hydro": 2320,
      "fri": 2321,
      "whe": 2322,
      "mother": 2323,
      "ground": 2324,
      "science": 2325,
      "26": 2326,
      "pp": 2327,
      "muse": 2328,
      "command": 2329,
      "either": 2330,
      "hon": 2331,
      "itch": 2332,
      "moved": 2333,
      "express": 2334,
      "days": 2335,
      "antic": 2336,
      "nove": 2337,
      "ends": 2338,
      "cit": 2339,
      "mur": 2340,
      "rather": 2341,
      "game": 2342,
      "nes": 2343,
      "2007": 2344,
      "ns": 2345,
      "pan": 2346,
      "constit": 2347,
      "center": 2348,
      "january": 2349,
      "pap": 2350,
      "society": 2351,
      "screen": 2352,
      "ga": 2353,
      "won": 2354,
      "december": 2355,
      "gas": 2356,
      "sun": 2357,
      "links": 2358,
      "lond": 2359,
      "ined": 2360,
      "begin": 2361,
      "producer": 2362,
      "books": 2363,
      "28": 2364,
      "ption": 2365,
      "role": 2366,
      "scott": 2367,
      "fish": 2368,
      "chan": 2369,
      "concer": 2370,
      "aged": 2371,
      "chi": 2372,
      "2008": 2373,
      "archite": 2374,
      "ming": 2375,
      "ply": 2376,
      "actress": 2377,
      "himself": 2378,
      "special": 2379,
      "eastern": 2380,
      "especially": 2381,
      "island": 2382,
      "che": 2383,
      "fel": 2384,
      "you": 2385,
      "dev": 2386,
      "upon": 2387,
      "27": 2388,
      "2010": 2389,
      "continued": 2390,
      "bio": 2391,
      "ery": 2392,
      "inc": 2393,
      "member": 2394,
      "altern": 2395,
      "text": 2396,
      "itive": 2397,
      "star": 2398,
      "women": 2399,
      "television": 2400,
      "profess": 2401,
      "words": 2402,
      "attack": 2403,
      "november": 2404,
      "making": 2405,
      "azerb": 2406,
      "energy": 2407,
      "ask": 2408,
      "afghan": 2409,
      "museum": 2410,
      "azerbai": 2411,
      "nit": 2412,
      "london": 2413,
      "row": 2414,
      "ime": 2415,
      "quest": 2416,
      "france": 2417,
      "cat": 2418,
      "acro": 2419,
      "religious": 2420,
      "ran": 2421,
      "kh": 2422,
      "road": 2423,
      "club": 2424,
      "minist": 2425,
      "ounced": 2426,
      "tober": 2427,
      "sure": 2428,
      "2011": 2429,
      "gold": 2430,
      "june": 2431,
      "award": 2432,
      "story": 2433,
      "stre": 2434,
      "october": 2435,
      "pi": 2436,
      "soviet": 2437,
      "japanese": 2438,
      "season": 2439,
      "auto": 2440,
      "cam": 2441,
      "combin": 2442,
      "nic": 2443,
      "rac": 2444,
      "data": 2445,
      "sil": 2446,
      "acid": 2447,
      "verse": 2448,
      "catholic": 2449,
      "dle": 2450,
      "uel": 2451,
      "san": 2452,
      "train": 2453,
      "bra": 2454,
      "final": 2455,
      "ges": 2456,
      "ring": 2457,
      "zer": 2458,
      "brother": 2459,
      "complex": 2460,
      "instead": 2461,
      "related": 2462,
      "next": 2463,
      "rod": 2464,
      "colon": 2465,
      "numbers": 2466,
      "released": 2467,
      "islam": 2468,
      "2009": 2469,
      "tens": 2470,
      "rights": 2471,
      "founded": 2472,
      "must": 2473,
      "electron": 2474,
      "saw": 2475,
      "expl": 2476,
      "2006": 2477,
      "employ": 2478,
      "least": 2479,
      "antis": 2480,
      "close": 2481,
      "oil": 2482,
      "rock": 2483,
      "185": 2484,
      "aph": 2485,
      "latin": 2486,
      "standard": 2487,
      "experim": 2488,
      "generally": 2489,
      "ending": 2490,
      "complete": 2491,
      "onso": 2492,
      "poly": 2493,
      "capital": 2494,
      "mad": 2495,
      "sl": 2496,
      "total": 2497,
      "recogn": 2498,
      "agre": 2499,
      "attempt": 2500,
      "successful": 2501,
      "icle": 2502,
      "labor": 2503,
      "food": 2504,
      "35": 2505,
      "big": 2506,
      "mis": 2507,
      "compe": 2508,
      "paul": 2509,
      "sound": 2510,
      "regard": 2511,
      "ba": 2512,
      "health": 2513,
      "experi": 2514,
      "australia": 2515,
      "sele": 2516,
      "throughout": 2517,
      "bul": 2518,
      "inst": 2519,
      "david": 2520,
      "aff": 2521,
      "interest": 2522,
      "meaning": 2523,
      "azerbaijan": 2524,
      "demo": 2525,
      "moon": 2526,
      "rome": 2527,
      "host": 2528,
      "wish": 2529,
      "80": 2530,
      "yer": 2531,
      "ald": 2532,
      "enced": 2533,
      "ches": 2534,
      "parts": 2535,
      "princi": 2536,
      "flo": 2537,
      "chin": 2538,
      "areas": 2539,
      "aristo": 2540,
      "dri": 2541,
      "asing": 2542,
      "2005": 2543,
      "middle": 2544,
      "young": 2545,
      "hib": 2546,
      "played": 2547,
      "previ": 2548,
      "consist": 2549,
      "know": 2550,
      "almost": 2551,
      "carri": 2552,
      "tax": 2553,
      "lou": 2554,
      "mich": 2555,
      "thom": 2556,
      "grand": 2557,
      "fail": 2558,
      "nas": 2559,
      "evidence": 2560,
      "spanish": 2561,
      "emperor": 2562,
      "andre": 2563,
      "ances": 2564,
      "ara": 2565,
      "argu": 2566,
      "avail": 2567,
      "accept": 2568,
      "ided": 2569,
      "singers": 2570,
      "broad": 2571,
      "culture": 2572,
      "resist": 2573,
      "medic": 2574,
      "surface": 2575,
      "active": 2576,
      "cret": 2577,
      "mc": 2578,
      "impro": 2579,
      "frequ": 2580,
      "elements": 2581,
      "ek": 2582,
      "seen": 2583,
      "assem": 2584,
      "icles": 2585,
      "2016": 2586,
      "education": 2587,
      "received": 2588,
      "teach": 2589,
      "offer": 2590,
      "super": 2591,
      "designed": 2592,
      "nom": 2593,
      "budd": 2594,
      "dutch": 2595,
      "range": 2596,
      "inal": 2597,
      "ours": 2598,
      "mun": 2599,
      "fire": 2600,
      "toge": 2601,
      "ney": 2602,
      "say": 2603,
      "relation": 2604,
      "indic": 2605,
      "60": 2606,
      "farm": 2607,
      "once": 2608,
      "ago": 2609,
      "glo": 2610,
      "imately": 2611,
      "astronom": 2612,
      "ceed": 2613,
      "higher": 2614,
      "market": 2615,
      "style": 2616,
      "together": 2617,
      "hu": 2618,
      "dem": 2619,
      "thought": 2620,
      "nel": 2621,
      "wi": 2622,
      "ym": 2623,
      "ense": 2624,
      "asia": 2625,
      "2017": 2626,
      "approx": 2627,
      "ties": 2628,
      "little": 2629,
      "comes": 2630,
      "means": 2631,
      "29": 2632,
      "akes": 2633,
      "ately": 2634,
      "james": 2635,
      "above": 2636,
      "lost": 2637,
      "multi": 2638,
      "project": 2639,
      "veh": 2640,
      "cost": 2641,
      "writing": 2642,
      "full": 2643,
      "economic": 2644,
      "rap": 2645,
      "seven": 2646,
      "brid": 2647,
      "council": 2648,
      "tor": 2649,
      "rica": 2650,
      "gian": 2651,
      "located": 2652,
      "pred": 2653,
      "alb": 2654,
      "prob": 2655,
      "invest": 2656,
      "taken": 2657,
      "aver": 2658,
      "dig": 2659,
      "coast": 2660,
      "reported": 2661,
      "grad": 2662,
      "184": 2663,
      "notes": 2664,
      "jews": 2665,
      "da": 2666,
      "gar": 2667,
      "respon": 2668,
      "ators": 2669,
      "acqu": 2670,
      "soldi": 2671,
      "revolution": 2672,
      "compo": 2673,
      "2018": 2674,
      "names": 2675,
      "critic": 2676,
      "austri": 2677,
      "sex": 2678,
      "wash": 2679,
      "capt": 2680,
      "aj": 2681,
      "ston": 2682,
      "singersong": 2683,
      "recent": 2684,
      "terms": 2685,
      "desp": 2686,
      "journalist": 2687,
      "games": 2688,
      "gun": 2689,
      "spo": 2690,
      "condu": 2691,
      "ults": 2692,
      "africa": 2693,
      "domin": 2694,
      "singersongwriter": 2695,
      "183": 2696,
      "analys": 2697,
      "ior": 2698,
      "rain": 2699,
      "sain": 2700,
      "ification": 2701,
      "traditional": 2702,
      "outs": 2703,
      "liber": 2704,
      "numer": 2705,
      "governor": 2706,
      "hab": 2707,
      "office": 2708,
      "technology": 2709,
      "sources": 2710,
      "available": 2711,
      "access": 2712,
      "constant": 2713,
      "angl": 2714,
      "baseball": 2715,
      "lled": 2716,
      "followed": 2717,
      "priv": 2718,
      "george": 2719,
      "oid": 2720,
      "fects": 2721,
      "front": 2722,
      "tail": 2723,
      "gave": 2724,
      "utes": 2725,
      "2020": 2726,
      "structure": 2727,
      "micro": 2728,
      "symbol": 2729,
      "engineer": 2730,
      "composer": 2731,
      "daugh": 2732,
      "sed": 2733,
      "itself": 2734,
      "viol": 2735,
      "charles": 2736,
      "philosophy": 2737,
      "respe": 2738,
      "india": 2739,
      "rate": 2740,
      "robert": 2741,
      "temper": 2742,
      "mountain": 2743,
      "ff": 2744,
      "ioned": 2745,
      "ula": 2746,
      "2019": 2747,
      "umin": 2748,
      "arts": 2749,
      "2001": 2750,
      "ought": 2751,
      "cali": 2752,
      "lor": 2753,
      "ships": 2754,
      "specific": 2755,
      "burg": 2756,
      "except": 2757,
      "bat": 2758,
      "mig": 2759,
      "quar": 2760,
      "177": 2761,
      "radio": 2762,
      "believed": 2763,
      "libr": 2764,
      "coach": 2765,
      "relative": 2766,
      "construction": 2767,
      "inte": 2768,
      "ops": 2769,
      "surv": 2770,
      "coming": 2771,
      "fav": 2772,
      "jer": 2773,
      "actions": 2774,
      "events": 2775,
      "2004": 2776,
      "classical": 2777,
      "went": 2778,
      "help": 2779,
      "influence": 2780,
      "tour": 2781,
      "febr": 2782,
      "jacks": 2783,
      "iso": 2784,
      "americans": 2785,
      "corpor": 2786,
      "lect": 2787,
      "february": 2788,
      "wa": 2789,
      "birth": 2790,
      "envir": 2791,
      "contribut": 2792,
      "lot": 2793,
      "ains": 2794,
      "jewish": 2795,
      "arily": 2796,
      "exe": 2797,
      "chinese": 2798,
      "ls": 2799,
      "squ": 2800,
      "ti": 2801,
      "nia": 2802,
      "era": 2803,
      "imp": 2804,
      "movement": 2805,
      "mir": 2806,
      "arsen": 2807,
      "introduced": 2808,
      "despite": 2809,
      "amaz": 2810,
      "ades": 2811,
      "environ": 2812,
      "rought": 2813,
      "rot": 2814,
      "distin": 2815,
      "information": 2816,
      "emit": 2817,
      "studies": 2818,
      "entire": 2819,
      "whose": 2820,
      "aign": 2821,
      "acc": 2822,
      "community": 2823,
      "cities": 2824,
      "park": 2825,
      "ink": 2826,
      "today": 2827,
      "communic": 2828,
      "associated": 2829,
      "killed": 2830,
      "photo": 2831,
      "analysis": 2832,
      "trade": 2833,
      "bey": 2834,
      "assy": 2835,
      "docum": 2836,
      "lawyer": 2837,
      "campaign": 2838,
      "mas": 2839,
      "away": 2840,
      "ada": 2841,
      "adopt": 2842,
      "rail": 2843,
      "nature": 2844,
      "orbit": 2845,
      "plant": 2846,
      "title": 2847,
      "bot": 2848,
      "foreign": 2849,
      "astronaut": 2850,
      "site": 2851,
      "ify": 2852,
      "video": 2853,
      "plat": 2854,
      "diffic": 2855,
      "congress": 2856,
      "anders": 2857,
      "ilities": 2858,
      "speak": 2859,
      "territory": 2860,
      "alco": 2861,
      "transport": 2862,
      "saf": 2863,
      "ria": 2864,
      "assist": 2865,
      "object": 2866,
      "difficult": 2867,
      "ael": 2868,
      "gal": 2869,
      "pil": 2870,
      "across": 2871,
      "might": 2872,
      "plied": 2873,
      "historical": 2874,
      "apt": 2875,
      "commer": 2876,
      "referred": 2877,
      "personal": 2878,
      "live": 2879,
      "hus": 2880,
      "lear": 2881,
      "secret": 2882,
      "feature": 2883,
      "spr": 2884,
      "alge": 2885,
      "ument": 2886,
      "ateg": 2887,
      "algor": 2888,
      "ny": 2889,
      "eventually": 2890,
      "softw": 2891,
      "hi": 2892,
      "meet": 2893,
      "prime": 2894,
      "democr": 2895,
      "err": 2896,
      "chemical": 2897,
      "champ": 2898,
      "announced": 2899,
      "value": 2900,
      "electr": 2901,
      "techni": 2902,
      "mi": 2903,
      "phen": 2904,
      "cop": 2905,
      "commit": 2906,
      "particularly": 2907,
      "thomas": 2908,
      "ammon": 2909,
      "ems": 2910,
      "writers": 2911,
      "regular": 2912,
      "allowed": 2913,
      "record": 2914,
      "software": 2915,
      "reason": 2916,
      "algorith": 2917,
      "lay": 2918,
      "size": 2919,
      "agric": 2920,
      "2003": 2921,
      "iation": 2922,
      "sit": 2923,
      "living": 2924,
      "approach": 2925,
      "manager": 2926,
      "stry": 2927,
      "1999": 2928,
      "fut": 2929,
      "fix": 2930,
      "ising": 2931,
      "aring": 2932,
      "fem": 2933,
      "cases": 2934,
      "ni": 2935,
      "administ": 2936,
      "singer": 2937,
      "review": 2938,
      "mechan": 2939,
      "disc": 2940,
      "returned": 2941,
      "hal": 2942,
      "ech": 2943,
      "mel": 2944,
      "arri": 2945,
      "fest": 2946,
      "too": 2947,
      "code": 2948,
      "remained": 2949,
      "effective": 2950,
      "athens": 2951,
      "pto": 2952,
      "apo": 2953,
      "agricult": 2954,
      "minor": 2955,
      "leader": 2956,
      "mix": 2957,
      "therefore": 2958,
      "letter": 2959,
      "henry": 2960,
      "vow": 2961,
      "quant": 2962,
      "philip": 2963,
      "ko": 2964,
      "adrian": 2965,
      "expe": 2966,
      "working": 2967,
      "color": 2968,
      "lebr": 2969,
      "manu": 2970,
      "2002": 2971,
      "cry": 2972,
      "sac": 2973,
      "academy": 2974,
      "brought": 2975,
      "thre": 2976,
      "peter": 2977,
      "tion": 2978,
      "republic": 2979,
      "edition": 2980,
      "imper": 2981,
      "pose": 2982,
      "tained": 2983,
      "fight": 2984,
      "letters": 2985,
      "ever": 2986,
      "celebr": 2987,
      "prison": 2988,
      "spect": 2989,
      "lincol": 2990,
      "source": 2991,
      "burn": 2992,
      "islands": 2993,
      "prop": 2994,
      "paris": 2995,
      "33": 2996,
      "race": 2997,
      "depart": 2998,
      "scottish": 2999,
      "ares": 3000,
      "ands": 3001,
      "amoun": 3002,
      "ush": 3003,
      "convent": 3004,
      "acts": 3005,
      "polic": 3006,
      "historian": 3007,
      "claimed": 3008,
      "chief": 3009,
      "instr": 3010,
      "alab": 3011,
      "ington": 3012,
      "scul": 3013,
      "ola": 3014,
      "discovered": 3015,
      "interpre": 3016,
      "includes": 3017,
      "treatment": 3018,
      "iot": 3019,
      "ints": 3020,
      "love": 3021,
      "tru": 3022,
      "sho": 3023,
      "germany": 3024,
      "leading": 3025,
      "cause": 3026,
      "vert": 3027,
      "appoint": 3028,
      "necess": 3029,
      "louis": 3030,
      "atory": 3031,
      "applic": 3032,
      "compound": 3033,
      "characters": 3034,
      "physical": 3035,
      "reading": 3036,
      "provided": 3037,
      "features": 3038,
      "ey": 3039,
      "wife": 3040,
      "ios": 3041,
      "china": 3042,
      "beginning": 3043,
      "algebra": 3044,
      "primary": 3045,
      "aqu": 3046,
      "cis": 3047,
      "gins": 3048,
      "peace": 3049,
      "ordin": 3050,
      "uro": 3051,
      "vill": 3052,
      "arth": 3053,
      "estim": 3054,
      "green": 3055,
      "types": 3056,
      "mex": 3057,
      "aber": 3058,
      "scientific": 3059,
      "spirit": 3060,
      "hall": 3061,
      "prov": 3062,
      "products": 3063,
      "occup": 3064,
      "smith": 3065,
      "typically": 3066,
      "anglican": 3067,
      "psy": 3068,
      "invent": 3069,
      "utions": 3070,
      "extens": 3071,
      "independence": 3072,
      "pher": 3073,
      "legal": 3074,
      "outside": 3075,
      "nation": 3076,
      "native": 3077,
      "mod": 3078,
      "die": 3079,
      "individual": 3080,
      "canada": 3081,
      "45": 3082,
      "past": 3083,
      "ana": 3084,
      "2021": 3085,
      "plement": 3086,
      "added": 3087,
      "album": 3088,
      "concl": 3089,
      "180": 3090,
      "famil": 3091,
      "required": 3092,
      "night": 3093,
      "daughter": 3094,
      "muslim": 3095,
      "manufact": 3096,
      "card": 3097,
      "lad": 3098,
      "effects": 3099,
      "subject": 3100,
      "likely": 3101,
      "increasing": 3102,
      "alternative": 3103,
      "environment": 3104,
      "lack": 3105,
      "limited": 3106,
      "sla": 3107,
      "sell": 3108,
      "unit": 3109,
      "subsequ": 3110,
      "observ": 3111,
      "contr": 3112,
      "emer": 3113,
      "lie": 3114,
      "evol": 3115,
      "married": 3116,
      "leaders": 3117,
      "industry": 3118,
      "70": 3119,
      "omb": 3120,
      "prevent": 3121,
      "decis": 3122,
      "ases": 3123,
      "determin": 3124,
      "sculpt": 3125,
      "onian": 3126,
      "amber": 3127,
      "ologist": 3128,
      "ready": 3129,
      "animals": 3130,
      "bac": 3131,
      "ray": 3132,
      "sec": 3133,
      "wat": 3134,
      "1998": 3135,
      "commonly": 3136,
      "earlier": 3137,
      "90": 3138,
      "bour": 3139,
      "mary": 3140,
      "anted": 3141,
      "antib": 3142,
      "1997": 3143,
      "script": 3144,
      "confeder": 3145,
      "eval": 3146,
      "kings": 3147,
      "1988": 3148,
      "myth": 3149,
      "element": 3150,
      "product": 3151,
      "swed": 3152,
      "anthro": 3153,
      "aus": 3154,
      "bak": 3155,
      "hold": 3156,
      "lic": 3157,
      "wit": 3158,
      "produce": 3159,
      "increased": 3160,
      "whether": 3161,
      "mou": 3162,
      "max": 3163,
      "commiss": 3164,
      "print": 3165,
      "arent": 3166,
      "kar": 3167,
      "stage": 3168,
      "conf": 3169,
      "abs": 3170,
      "cultural": 3171,
      "industri": 3172,
      "future": 3173,
      "cand": 3174,
      "ico": 3175,
      "whom": 3176,
      "marri": 3177,
      "extre": 3178,
      "defined": 3179,
      "deb": 3180,
      "1969": 3181,
      "variety": 3182,
      "appeared": 3183,
      "schools": 3184,
      "respons": 3185,
      "college": 3186,
      "ano": 3187,
      "uries": 3188,
      "concept": 3189,
      "0000": 3190,
      "media": 3191,
      "caused": 3192,
      "cross": 3193,
      "sons": 3194,
      "guit": 3195,
      "1992": 3196,
      "films": 3197,
      "standing": 3198,
      "75": 3199,
      "1996": 3200,
      "metal": 3201,
      "library": 3202,
      "hit": 3203,
      "isra": 3204,
      "provide": 3205,
      "michael": 3206,
      "jackson": 3207,
      "ado": 3208,
      "aps": 3209,
      "angel": 3210,
      "probably": 3211,
      "aar": 3212,
      "diale": 3213,
      "1990": 3214,
      "iction": 3215,
      "started": 3216,
      "growth": 3217,
      "sett": 3218,
      "friend": 3219,
      "constitution": 3220,
      "medicine": 3221,
      "sports": 3222,
      "onic": 3223,
      "agon": 3224,
      "178": 3225,
      "larger": 3226,
      "selves": 3227,
      "alfred": 3228,
      "possib": 3229,
      "nd": 3230,
      "ners": 3231,
      "prize": 3232,
      "institute": 3233,
      "thesis": 3234,
      "average": 3235,
      "leng": 3236,
      "deaths": 3237,
      "literature": 3238,
      "problems": 3239,
      "geo": 3240,
      "remains": 3241,
      "independent": 3242,
      "soon": 3243,
      "percent": 3244,
      "1991": 3245,
      "ledge": 3246,
      "services": 3247,
      "shap": 3248,
      "chemist": 3249,
      "ugu": 3250,
      "antisemit": 3251,
      "aes": 3252,
      "pir": 3253,
      "zo": 3254,
      "sky": 3255,
      "basic": 3256,
      "38": 3257,
      "bri": 3258,
      "alt": 3259,
      "stated": 3260,
      "1970": 3261,
      "issue": 3262,
      "greater": 3263,
      "1972": 3264,
      "draw": 3265,
      "approximately": 3266,
      "towards": 3267,
      "medical": 3268,
      "originally": 3269,
      "association": 3270,
      "bridge": 3271,
      "fres": 3272,
      "hot": 3273,
      "uation": 3274,
      "atives": 3275,
      "anda": 3276,
      "mostly": 3277,
      "1980": 3278,
      "distribut": 3279,
      "vot": 3280,
      "always": 3281,
      "astro": 3282,
      "publish": 3283,
      "pie": 3284,
      "ustr": 3285,
      "stone": 3286,
      "points": 3287,
      "latter": 3288,
      "39": 3289,
      "sold": 3290,
      "via": 3291,
      "reli": 3292,
      "allo": 3293,
      "alban": 3294,
      "uments": 3295,
      "directly": 3296,
      "widely": 3297,
      "bly": 3298,
      "pay": 3299,
      "conditions": 3300,
      "fund": 3301,
      "19th": 3302,
      "mob": 3303,
      "pope": 3304,
      "afghanistan": 3305,
      "flow": 3306,
      "yn": 3307,
      "stad": 3308,
      "counter": 3309,
      "prince": 3310,
      "prior": 3311,
      "angle": 3312,
      "greg": 3313,
      "1984": 3314,
      "struct": 3315,
      "bab": 3316,
      "richard": 3317,
      "itor": 3318,
      "bow": 3319,
      "contem": 3320,
      "months": 3321,
      "election": 3322,
      "1986": 3323,
      "distr": 3324,
      "examples": 3325,
      "break": 3326,
      "federal": 3327,
      "israel": 3328,
      "mes": 3329,
      "alleg": 3330,
      "concent": 3331,
      "famous": 3332,
      "defe": 3333,
      "box": 3334,
      "ogy": 3335,
      "1985": 3336,
      "troops": 3337,
      "pic": 3338,
      "uals": 3339,
      "oney": 3340,
      "ots": 3341,
      "below": 3342,
      "perfor": 3343,
      "station": 3344,
      "results": 3345,
      "themselves": 3346,
      "economy": 3347,
      "martin": 3348,
      "private": 3349,
      "lau": 3350,
      "teen": 3351,
      "1995": 3352,
      "properties": 3353,
      "64": 3354,
      "hill": 3355,
      "jack": 3356,
      "colum": 3357,
      "regions": 3358,
      "califor": 3359,
      "ulated": 3360,
      "20th": 3361,
      "turk": 3362,
      "saint": 3363,
      "34": 3364,
      "1989": 3365,
      "1920": 3366,
      "branch": 3367,
      "wel": 3368,
      "reign": 3369,
      "divid": 3370,
      "belief": 3371,
      "austin": 3372,
      "islamic": 3373,
      "guitar": 3374,
      "ker": 3375,
      "rid": 3376,
      "supported": 3377,
      "performan": 3378,
      "sus": 3379,
      "ened": 3380,
      "usion": 3381,
      "derived": 3382,
      "frank": 3383,
      "icted": 3384,
      "rat": 3385,
      "abu": 3386,
      "ull": 3387,
      "proposed": 3388,
      "ensive": 3389,
      "murder": 3390,
      "ention": 3391,
      "phon": 3392,
      "coll": 3393,
      "increase": 3394,
      "atlantic": 3395,
      "execut": 3396,
      "male": 3397,
      "volum": 3398,
      "destroy": 3399,
      "career": 3400,
      "lincoln": 3401,
      "byz": 3402,
      "antine": 3403,
      "1968": 3404,
      "memory": 3405,
      "armenian": 3406,
      "section": 3407,
      "proto": 3408,
      "1945": 3409,
      "majority": 3410,
      "jul": 3411,
      "account": 3412,
      "1900": 3413,
      "true": 3414,
      "ques": 3415,
      "1977": 3416,
      "cel": 3417,
      "1994": 3418,
      "italy": 3419,
      "billion": 3420,
      "training": 3421,
      "65": 3422,
      "han": 3423,
      "vic": 3424,
      "ambro": 3425,
      "confl": 3426,
      "plays": 3427,
      "jose": 3428,
      "1993": 3429,
      "animal": 3430,
      "eve": 3431,
      "ket": 3432,
      "iting": 3433,
      "demon": 3434,
      "ida": 3435,
      "porary": 3436,
      "1978": 3437,
      "scholars": 3438,
      "machine": 3439,
      "operations": 3440,
      "thr": 3441,
      "forced": 3442,
      "1979": 3443,
      "russia": 3444,
      "citiz": 3445,
      "32": 3446,
      "better": 3447,
      "changes": 3448,
      "lived": 3449,
      "1974": 3450,
      "1975": 3451,
      "particip": 3452,
      "nearly": 3453,
      "31": 3454,
      "online": 3455,
      "asho": 3456,
      "1976": 3457,
      "nov": 3458,
      "aberde": 3459,
      "aal": 3460,
      "oce": 3461,
      "arama": 3462,
      "antim": 3463,
      "extreme": 3464,
      "nations": 3465,
      "path": 3466,
      "eds": 3467,
      "1981": 3468,
      "rule": 3469,
      "global": 3470,
      "marriage": 3471,
      "give": 3472,
      "cru": 3473,
      "1987": 3474,
      "students": 3475,
      "victory": 3476,
      "screenwriter": 3477,
      "integr": 3478,
      "resistance": 3479,
      "eight": 3480,
      "highest": 3481,
      "bank": 3482,
      "arct": 3483,
      "istics": 3484,
      "armenia": 3485,
      "tons": 3486,
      "phy": 3487,
      "scal": 3488,
      "speech": 3489,
      "appears": 3490,
      "sterdam": 3491,
      "involved": 3492,
      "bay": 3493,
      "amsterdam": 3494,
      "illustr": 3495,
      "reached": 3496,
      "replaced": 3497,
      "aclu": 3498,
      "detail": 3499,
      "performed": 3500,
      "landing": 3501,
      "oxy": 3502,
      "province": 3503,
      "hind": 3504,
      "ky": 3505,
      "tas": 3506,
      "pron": 3507,
      "fully": 3508,
      "operation": 3509,
      "magnit": 3510,
      "problem": 3511,
      "division": 3512,
      "carbon": 3513,
      "places": 3514,
      "california": 3515,
      "aramaic": 3516,
      "ert": 3517,
      "theat": 3518,
      "prom": 3519,
      "1971": 3520,
      "crow": 3521,
      "companies": 3522,
      "ajax": 3523,
      "thous": 3524,
      "eda": 3525,
      "cape": 3526,
      "washington": 3527,
      "cin": 3528,
      "table": 3529,
      "yet": 3530,
      "units": 3531,
      "compar": 3532,
      "practice": 3533,
      "cli": 3534,
      "pts": 3535,
      "calcul": 3536,
      "loss": 3537,
      "fif": 3538,
      "hours": 3539,
      "round": 3540,
      "anton": 3541,
      "respond": 3542,
      "length": 3543,
      "ires": 3544,
      "oids": 3545,
      "alger": 3546,
      "irish": 3547,
      "temple": 3548,
      "aberdeen": 3549,
      "48": 3550,
      "stars": 3551,
      "highly": 3552,
      "priest": 3553,
      "spacecraft": 3554,
      "painter": 3555,
      "sets": 3556,
      "shah": 3557,
      "1967": 3558,
      "religion": 3559,
      "aving": 3560,
      "drug": 3561,
      "freed": 3562,
      "district": 3563,
      "95": 3564,
      "gi": 3565,
      "nis": 3566,
      "idea": 3567,
      "objects": 3568,
      "specif": 3569,
      "collection": 3570,
      "anarch": 3571,
      "assembly": 3572,
      "tree": 3573,
      "advan": 3574,
      "etic": 3575,
      "hood": 3576,
      "finan": 3577,
      "isms": 3578,
      "1982": 3579,
      "johnson": 3580,
      "churches": 3581,
      "scot": 3582,
      "organization": 3583,
      "numerous": 3584,
      "hung": 3585,
      "kin": 3586,
      "plann": 3587,
      "bodies": 3588,
      "1966": 3589,
      "worked": 3590,
      "issues": 3591,
      "measure": 3592,
      "ira": 3593,
      "create": 3594,
      "longer": 3595,
      "austrian": 3596,
      "here": 3597,
      "isl": 3598,
      "izing": 3599,
      "intell": 3600,
      "1962": 3601,
      "iom": 3602,
      "excl": 3603,
      "ivity": 3604,
      "saur": 3605,
      "rug": 3606,
      "intellig": 3607,
      "ease": 3608,
      "deep": 3609,
      "britain": 3610,
      "patri": 3611,
      "bound": 3612,
      "stop": 3613,
      "braz": 3614,
      "imperial": 3615,
      "antibiot": 3616,
      "sens": 3617,
      "candid": 3618,
      "lord": 3619,
      "alle": 3620,
      "alumin": 3621,
      "formal": 3622,
      "jected": 3623,
      "1944": 3624,
      "distance": 3625,
      "smaller": 3626,
      "atomic": 3627,
      "hydrogen": 3628,
      "commercial": 3629,
      "37": 3630,
      "orders": 3631,
      "relationship": 3632,
      "document": 3633,
      "lm": 3634,
      "nobel": 3635,
      "160": 3636,
      "otto": 3637,
      "knowledge": 3638,
      "chap": 3639,
      "immedi": 3640,
      "wealth": 3641,
      "cannot": 3642,
      "polish": 3643,
      "47": 3644,
      "tu": 3645,
      "iron": 3646,
      "duke": 3647,
      "ansas": 3648,
      "influenced": 3649,
      "separate": 3650,
      "scholar": 3651,
      "dete": 3652,
      "implement": 3653,
      "airs": 3654,
      "1983": 3655,
      "activity": 3656,
      "travel": 3657,
      "professional": 3658,
      "iran": 3659,
      "abort": 3660,
      "weight": 3661,
      "ference": 3662,
      "achill": 3663,
      "dre": 3664,
      "ulf": 3665,
      "promin": 3666,
      "arrang": 3667,
      "happ": 3668,
      "stic": 3669,
      "1973": 3670,
      "address": 3671,
      "analy": 3672,
      "mathematician": 3673,
      "cou": 3674,
      "nast": 3675,
      "elected": 3676,
      "oh": 3677,
      "pian": 3678,
      "taking": 3679,
      "ered": 3680,
      "protest": 3681,
      "compared": 3682,
      "hero": 3683,
      "greece": 3684,
      "benef": 3685,
      "contains": 3686,
      "architect": 3687,
      "36": 3688,
      "ona": 3689,
      "enough": 3690,
      "beha": 3691,
      "plants": 3692,
      "computers": 3693,
      "rand": 3694,
      "already": 3695,
      "acup": 3696,
      "businessman": 3697,
      "rare": 3698,
      "ises": 3699,
      "iance": 3700,
      "antig": 3701,
      "network": 3702,
      "99": 3703,
      "din": 3704,
      "1963": 3705,
      "multiple": 3706,
      "square": 3707,
      "cks": 3708,
      "tun": 3709,
      "targ": 3710,
      "anded": 3711,
      "iles": 3712,
      "poor": 3713,
      "keep": 3714,
      "1964": 3715,
      "largely": 3716,
      "ctively": 3717,
      "experience": 3718,
      "relatively": 3719,
      "demonstr": 3720,
      "laws": 3721,
      "methods": 3722,
      "texas": 3723,
      "assyrian": 3724,
      "ocean": 3725,
      "brazil": 3726,
      "categ": 3727,
      "centre": 3728,
      "adopted": 3729,
      "alcohol": 3730,
      "defeated": 3731,
      "ales": 3732,
      "decre": 3733,
      "ables": 3734,
      "centuries": 3735,
      "regional": 3736,
      "mitted": 3737,
      "previous": 3738,
      "astronauts": 3739,
      "stor": 3740,
      "igned": 3741,
      "settle": 3742,
      "buildings": 3743,
      "acupun": 3744,
      "hous": 3745,
      "sin": 3746,
      "aland": 3747,
      "hell": 3748,
      "modu": 3749,
      "motion": 3750,
      "republ": 3751,
      "magaz": 3752,
      "virgin": 3753,
      "discuss": 3754,
      "orthod": 3755,
      "expans": 3756,
      "summer": 3757,
      "figure": 3758,
      "bad": 3759,
      "qa": 3760,
      "wise": 3761,
      "onto": 3762,
      "ements": 3763,
      "aud": 3764,
      "desc": 3765,
      "gods": 3766,
      "44": 3767,
      "hund": 3768,
      "iers": 3769,
      "varian": 3770,
      "anes": 3771,
      "room": 3772,
      "mole": 3773,
      "shown": 3774,
      "crim": 3775,
      "treaty": 3776,
      "estimated": 3777,
      "wave": 3778,
      "vey": 3779,
      "comed": 3780,
      "assa": 3781,
      "champion": 3782,
      "module": 3783,
      "orial": 3784,
      "hosp": 3785,
      "compon": 3786,
      "date": 3787,
      "weak": 3788,
      "doct": 3789,
      "matter": 3790,
      "honor": 3791,
      "acids": 3792,
      "frag": 3793,
      "completed": 3794,
      "additional": 3795,
      "ging": 3796,
      "idents": 3797,
      "emph": 3798,
      "comput": 3799,
      "county": 3800,
      "potential": 3801,
      "suggested": 3802,
      "digital": 3803,
      "joseph": 3804,
      "rise": 3805,
      "winter": 3806,
      "resol": 3807,
      "geomet": 3808,
      "whole": 3809,
      "players": 3810,
      "needed": 3811,
      "paper": 3812,
      "investig": 3813,
      "jur": 3814,
      "repe": 3815,
      "spain": 3816,
      "mainly": 3817,
      "require": 3818,
      "queen": 3819,
      "sense": 3820,
      "lying": 3821,
      "corre": 3822,
      "blood": 3823,
      "nasa": 3824,
      "magnitude": 3825,
      "hundred": 3826,
      "done": 3827,
      "tel": 3828,
      "ware": 3829,
      "isa": 3830,
      "uran": 3831,
      "basis": 3832,
      "suffer": 3833,
      "compounds": 3834,
      "dor": 3835,
      "gs": 3836,
      "mut": 3837,
      "phone": 3838,
      "attribut": 3839,
      "alfonso": 3840,
      "dim": 3841,
      "ingu": 3842,
      "aces": 3843,
      "secur": 3844,
      "preser": 3845,
      "annual": 3846,
      "launched": 3847,
      "response": 3848,
      "habit": 3849,
      "temperature": 3850,
      "guitarist": 3851,
      "wid": 3852,
      "ively": 3853,
      "week": 3854,
      "electric": 3855,
      "families": 3856,
      "byzantine": 3857,
      "si": 3858,
      "ferred": 3859,
      "1965": 3860,
      "behavi": 3861,
      "cab": 3862,
      "thy": 3863,
      "inde": 3864,
      "div": 3865,
      "alabama": 3866,
      "bacter": 3867,
      "andor": 3868,
      "exhib": 3869,
      "1943": 3870,
      "victor": 3871,
      "spoken": 3872,
      "divided": 3873,
      "theast": 3874,
      "airlines": 3875,
      "programs": 3876,
      "philosopher": 3877,
      "passed": 3878,
      "defense": 3879,
      "fal": 3880,
      "makes": 3881,
      "asons": 3882,
      "upper": 3883,
      "1942": 3884,
      "faith": 3885,
      "55": 3886,
      "bled": 3887,
      "axiom": 3888,
      "definition": 3889,
      "urban": 3890,
      "portugu": 3891,
      "carry": 3892,
      "turned": 3893,
      "policy": 3894,
      "industrial": 3895,
      "alone": 3896,
      "1960": 3897,
      "worlds": 3898,
      "performance": 3899,
      "atari": 3900,
      "chall": 3901,
      "iving": 3902,
      "graphic": 3903,
      "property": 3904,
      "alphabet": 3905,
      "rine": 3906,
      "ayed": 3907,
      "dio": 3908,
      "hop": 3909,
      "disease": 3910,
      "intended": 3911,
      "parliam": 3912,
      "initial": 3913,
      "kore": 3914,
      "pit": 3915,
      "yah": 3916,
      "inj": 3917,
      "conver": 3918,
      "supre": 3919,
      "carried": 3920,
      "jean": 3921,
      "armed": 3922,
      "solution": 3923,
      "bce": 3924,
      "phere": 3925,
      "authority": 3926,
      "marked": 3927,
      "apparent": 3928,
      "2nd": 3929,
      "fair": 3930,
      "pc": 3931,
      "rd": 3932,
      "ibn": 3933,
      "forest": 3934,
      "dynast": 3935,
      "refle": 3936,
      "cles": 3937,
      "lling": 3938,
      "anni": 3939,
      "nucle": 3940,
      "combined": 3941,
      "anthropol": 3942,
      "perform": 3943,
      "artists": 3944,
      "quick": 3945,
      "speed": 3946,
      "signed": 3947,
      "navy": 3948,
      "earliest": 3949,
      "amount": 3950,
      "appointed": 3951,
      "ya": 3952,
      "aled": 3953,
      "dead": 3954,
      "fiction": 3955,
      "1947": 3956,
      "course": 3957,
      "resulting": 3958,
      "mouth": 3959,
      "maxim": 3960,
      "acupuncture": 3961,
      "fant": 3962,
      "reaction": 3963,
      "cher": 3964,
      "comment": 3965,
      "flor": 3966,
      "joined": 3967,
      "charge": 3968,
      "equival": 3969,
      "records": 3970,
      "woman": 3971,
      "alberta": 3972,
      "security": 3973,
      "isation": 3974,
      "iga": 3975,
      "equip": 3976,
      "location": 3977,
      "portuguese": 3978,
      "xi": 3979,
      "weap": 3980,
      "1940": 3981,
      "represented": 3982,
      "lav": 3983,
      "wis": 3984,
      "anc": 3985,
      "composed": 3986,
      "neut": 3987,
      "noted": 3988,
      "effic": 3989,
      "physic": 3990,
      "analog": 3991,
      "andrew": 3992,
      "pse": 3993,
      "defeat": 3994,
      "150": 3995,
      "choice": 3996,
      "aphrod": 3997,
      "aluminium": 3998,
      "republican": 3999,
      "parliament": 4000,
      "pac": 4001,
      "cting": 4002,
      "recorded": 4003,
      "changed": 4004,
      "block": 4005,
      "bach": 4006,
      "tv": 4007,
      "wright": 4008,
      "alan": 4009,
      "enn": 4010,
      "suit": 4011,
      "carrier": 4012,
      "improve": 4013,
      "master": 4014,
      "restr": 4015,
      "alem": 4016,
      "degree": 4017,
      "absol": 4018,
      "heart": 4019,
      "americ": 4020,
      "grapher": 4021,
      "release": 4022,
      "individuals": 4023,
      "failed": 4024,
      "einste": 4025,
      "hes": 4026,
      "lake": 4027,
      "mess": 4028,
      "arc": 4029,
      "olf": 4030,
      "neigh": 4031,
      "polar": 4032,
      "negative": 4033,
      "vehicle": 4034,
      "money": 4035,
      "enna": 4036,
      "ams": 4037,
      "quality": 4038,
      "notable": 4039,
      "match": 4040,
      "zealand": 4041,
      "1st": 4042,
      "68": 4043,
      "cular": 4044,
      "alas": 4045,
      "intel": 4046,
      "ville": 4047,
      "za": 4048,
      "therap": 4049,
      "warhol": 4050,
      "persian": 4051,
      "holy": 4052,
      "distinct": 4053,
      "assault": 4054,
      "ror": 4055,
      "deal": 4056,
      "positions": 4057,
      "auth": 4058,
      "lives": 4059,
      "mentioned": 4060,
      "presence": 4061,
      "equal": 4062,
      "motor": 4063,
      "contemporary": 4064,
      "izations": 4065,
      "finally": 4066,
      "peoples": 4067,
      "legisl": 4068,
      "oxygen": 4069,
      "expansion": 4070,
      "ita": 4071,
      "amph": 4072,
      "becomes": 4073,
      "subst": 4074,
      "possess": 4075,
      "egyptian": 4076,
      "antisemitism": 4077,
      "gers": 4078,
      "nine": 4079,
      "pul": 4080,
      "pak": 4081,
      "ses": 4082,
      "oud": 4083,
      "climate": 4084,
      "brand": 4085,
      "portion": 4086,
      "condition": 4087,
      "1939": 4088,
      "orthodox": 4089,
      "bia": 4090,
      "pun": 4091,
      "von": 4092,
      "icated": 4093,
      "month": 4094,
      "1961": 4095,
      "metals": 4096,
      "1928": 4097,
      "primarily": 4098,
      "argued": 4099,
      "electrons": 4100,
      "tend": 4101,
      "blue": 4102,
      "ideas": 4103,
      "fourth": 4104,
      "opened": 4105,
      "accepted": 4106,
      "fill": 4107,
      "ked": 4108,
      "applied": 4109,
      "ibility": 4110,
      "identified": 4111,
      "succeed": 4112,
      "status": 4113,
      "previously": 4114,
      "absolute": 4115,
      "tar": 4116,
      "becoming": 4117,
      "agno": 4118,
      "promo": 4119,
      "display": 4120,
      "internal": 4121,
      "foundation": 4122,
      "ān": 4123,
      "eties": 4124,
      "maintain": 4125,
      "signal": 4126,
      "explo": 4127,
      "philosophers": 4128,
      "spring": 4129,
      "enes": 4130,
      "plane": 4131,
      "attacks": 4132,
      "aught": 4133,
      "texts": 4134,
      "pict": 4135,
      "stan": 4136,
      "mans": 4137,
      "1948": 4138,
      "1901": 4139,
      "initially": 4140,
      "soldiers": 4141,
      "nik": 4142,
      "wers": 4143,
      "ads": 4144,
      "resour": 4145,
      "caes": 4146,
      "refers": 4147,
      "atoms": 4148,
      "georg": 4149,
      "medieval": 4150,
      "soldier": 4151,
      "necessary": 4152,
      "gall": 4153,
      "rob": 4154,
      "provin": 4155,
      "ainu": 4156,
      "cock": 4157,
      "adela": 4158,
      "visit": 4159,
      "offered": 4160,
      "progress": 4161,
      "spread": 4162,
      "francis": 4163,
      "risk": 4164,
      "behind": 4165,
      "forts": 4166,
      "awards": 4167,
      "commander": 4168,
      "observed": 4169,
      "functions": 4170,
      "agreement": 4171,
      "impact": 4172,
      "voc": 4173,
      "ili": 4174,
      "ift": 4175,
      "1930": 4176,
      "rules": 4177,
      "psych": 4178,
      "image": 4179,
      "articles": 4180,
      "oted": 4181,
      "positive": 4182,
      "basket": 4183,
      "occas": 4184,
      "simple": 4185,
      "crown": 4186,
      "entered": 4187,
      "female": 4188,
      "threat": 4189,
      "department": 4190,
      "gir": 4191,
      "rang": 4192,
      "thetic": 4193,
      "moving": 4194,
      "step": 4195,
      "operating": 4196,
      "humans": 4197,
      "athena": 4198,
      "migr": 4199,
      "instru": 4200,
      "oral": 4201,
      "ols": 4202,
      "astic": 4203,
      "1929": 4204,
      "pression": 4205,
      "aristotle": 4206,
      "ras": 4207,
      "spl": 4208,
      "ür": 4209,
      "mond": 4210,
      "minutes": 4211,
      "osaur": 4212,
      "values": 4213,
      "simply": 4214,
      "figures": 4215,
      "beyond": 4216,
      "saurus": 4217,
      "supreme": 4218,
      "ini": 4219,
      "thet": 4220,
      "roun": 4221,
      "deli": 4222,
      "older": 4223,
      "olym": 4224,
      "conserv": 4225,
      "look": 4226,
      "plus": 4227,
      "joy": 4228,
      "cens": 4229,
      "ante": 4230,
      "festival": 4231,
      "rus": 4232,
      "tan": 4233,
      "tank": 4234,
      "cred": 4235,
      "creation": 4236,
      "twent": 4237,
      "1941": 4238,
      "argent": 4239,
      "cells": 4240,
      "heavy": 4241,
      "66": 4242,
      "nar": 4243,
      "rank": 4244,
      "alqa": 4245,
      "aded": 4246,
      "pattern": 4247,
      "decided": 4248,
      "favor": 4249,
      "swedish": 4250,
      "hun": 4251,
      "kind": 4252,
      "pon": 4253,
      "ua": 4254,
      "edward": 4255,
      "aspe": 4256,
      "stell": 4257,
      "contract": 4258,
      "artist": 4259,
      "hoc": 4260,
      "1938": 4261,
      "1958": 4262,
      "moral": 4263,
      "rapid": 4264,
      "sexual": 4265,
      "ancy": 4266,
      "lif": 4267,
      "kept": 4268,
      "succession": 4269,
      "algebraic": 4270,
      "decision": 4271,
      "emphas": 4272,
      "sar": 4273,
      "orb": 4274,
      "abra": 4275,
      "note": 4276,
      "write": 4277,
      "hypo": 4278,
      "models": 4279,
      "stable": 4280,
      "mann": 4281,
      "bles": 4282,
      "179": 4283,
      "valley": 4284,
      "fields": 4285,
      "expected": 4286,
      "rugby": 4287,
      "tes": 4288,
      "things": 4289,
      "reve": 4290,
      "dram": 4291,
      "volume": 4292,
      "conflict": 4293,
      "sis": 4294,
      "spent": 4295,
      "disco": 4296,
      "render": 4297,
      "normal": 4298,
      "closed": 4299,
      "experiment": 4300,
      "dar": 4301,
      "án": 4302,
      "ament": 4303,
      "conce": 4304,
      "1954": 4305,
      "existence": 4306,
      "translation": 4307,
      "freedom": 4308,
      "prominent": 4309,
      "tition": 4310,
      "ambig": 4311,
      "anta": 4312,
      "acting": 4313,
      "share": 4314,
      "pressure": 4315,
      "arkansas": 4316,
      "materials": 4317,
      "nuclear": 4318,
      "biography": 4319,
      "ammonia": 4320,
      "contrast": 4321,
      "58": 4322,
      "sey": 4323,
      "agass": 4324,
      "find": 4325,
      "whereas": 4326,
      "critical": 4327,
      "claims": 4328,
      "levels": 4329,
      "arsenic": 4330,
      "pilot": 4331,
      "fit": 4332,
      "incorpor": 4333,
      "itzer": 4334,
      "compl": 4335,
      "plom": 4336,
      "udes": 4337,
      "cars": 4338,
      "ieve": 4339,
      "1937": 4340,
      "mathematical": 4341,
      "commission": 4342,
      "financial": 4343,
      "aa": 4344,
      "police": 4345,
      "1925": 4346,
      "sciences": 4347,
      "translated": 4348,
      "sir": 4349,
      "icke": 4350,
      "icip": 4351,
      "conqu": 4352,
      "diplom": 4353,
      "focus": 4354,
      "opposed": 4355,
      "carneg": 4356,
      "containing": 4357,
      "municip": 4358,
      "techniques": 4359,
      "possibly": 4360,
      "mol": 4361,
      "reser": 4362,
      "reduced": 4363,
      "basketball": 4364,
      "aer": 4365,
      "ography": 4366,
      "anat": 4367,
      "track": 4368,
      "actin": 4369,
      "1933": 4370,
      "architecture": 4371,
      "asked": 4372,
      "theatre": 4373,
      "len": 4374,
      "naz": 4375,
      "paren": 4376,
      "vary": 4377,
      "inated": 4378,
      "told": 4379,
      "advent": 4380,
      "bring": 4381,
      "spider": 4382,
      "direction": 4383,
      "distingu": 4384,
      "1926": 4385,
      "ethnic": 4386,
      "planet": 4387,
      "committe": 4388,
      "pure": 4389,
      "asian": 4390,
      "stren": 4391,
      "polis": 4392,
      "carol": 4393,
      "1960s": 4394,
      "1946": 4395,
      "steel": 4396,
      "1924": 4397,
      "arctic": 4398,
      "ancest": 4399,
      "jes": 4400,
      "kes": 4401,
      "apl": 4402,
      "article": 4403,
      "achieve": 4404,
      "ested": 4405,
      "archae": 4406,
      "missions": 4407,
      "allowing": 4408,
      "literary": 4409,
      "administration": 4410,
      "consequ": 4411,
      "airport": 4412,
      "1959": 4413,
      "shows": 4414,
      "regarded": 4415,
      "frequently": 4416,
      "vehicles": 4417,
      "respectively": 4418,
      "achilles": 4419,
      "gard": 4420,
      "rum": 4421,
      "chip": 4422,
      "adapt": 4423,
      "mind": 4424,
      "1936": 4425,
      "accord": 4426,
      "purpose": 4427,
      "applications": 4428,
      "pack": 4429,
      "amd": 4430,
      "akh": 4431,
      "educator": 4432,
      "currently": 4433,
      "interpret": 4434,
      "advanced": 4435,
      "target": 4436,
      "bury": 4437,
      "ois": 4438,
      "oured": 4439,
      "logy": 4440,
      "affe": 4441,
      "anger": 4442,
      "border": 4443,
      "aeus": 4444,
      "musical": 4445,
      "stock": 4446,
      "mathematics": 4447,
      "immediately": 4448,
      "inus": 4449,
      "amed": 4450,
      "amiga": 4451,
      "uded": 4452,
      "cricke": 4453,
      "1956": 4454,
      "takes": 4455,
      "algorithm": 4456,
      "streng": 4457,
      "jac": 4458,
      "relations": 4459,
      "fighting": 4460,
      "brief": 4461,
      "fried": 4462,
      "pine": 4463,
      "chain": 4464,
      "mode": 4465,
      "1952": 4466,
      "views": 4467,
      "invas": 4468,
      "provides": 4469,
      "growing": 4470,
      "explor": 4471,
      "fast": 4472,
      "zene": 4473,
      "asi": 4474,
      "stra": 4475,
      "serve": 4476,
      "wars": 4477,
      "1957": 4478,
      "presented": 4479,
      "expressed": 4480,
      "arthur": 4481,
      "turkish": 4482,
      "magazine": 4483,
      "hospital": 4484,
      "dynasty": 4485,
      "67": 4486,
      "haps": 4487,
      "ki": 4488,
      "kid": 4489,
      "pent": 4490,
      "stress": 4491,
      "leon": 4492,
      "amar": 4493,
      "pray": 4494,
      "monarch": 4495,
      "conson": 4496,
      "brown": 4497,
      "1921": 4498,
      "physician": 4499,
      "activities": 4500,
      "cuis": 4501,
      "physicist": 4502,
      "alaska": 4503,
      "cav": 4504,
      "dur": 4505,
      "driver": 4506,
      "pes": 4507,
      "aceae": 4508,
      "ictions": 4509,
      "1949": 4510,
      "shell": 4511,
      "programming": 4512,
      "loyal": 4513,
      "agreed": 4514,
      "vowel": 4515,
      "adelaide": 4516,
      "ders": 4517,
      "tell": 4518,
      "turing": 4519,
      "perhaps": 4520,
      "oldest": 4521,
      "starting": 4522,
      "initi": 4523,
      "hockey": 4524,
      "bass": 4525,
      "bomb": 4526,
      "fell": 4527,
      "gam": 4528,
      "hitch": 4529,
      "mort": 4530,
      "sn": 4531,
      "aspir": 4532,
      "leaving": 4533,
      "tery": 4534,
      "braves": 4535,
      "achi": 4536,
      "mono": 4537,
      "1955": 4538,
      "chron": 4539,
      "mobile": 4540,
      "cricketer": 4541,
      "beaut": 4542,
      "firm": 4543,
      "1950": 4544,
      "fellow": 4545,
      "quickly": 4546,
      "aphrodite": 4547,
      "authors": 4548,
      "ping": 4549,
      "qual": 4550,
      "bern": 4551,
      "1922": 4552,
      "street": 4553,
      "spiritual": 4554,
      "structures": 4555,
      "ja": 4556,
      "ils": 4557,
      "agri": 4558,
      "news": 4559,
      "directed": 4560,
      "augustine": 4561,
      "cau": 4562,
      "lan": 4563,
      "oct": 4564,
      "itude": 4565,
      "1918": 4566,
      "births": 4567,
      "dess": 4568,
      "sid": 4569,
      "1914": 4570,
      "unknown": 4571,
      "vised": 4572,
      "1927": 4573,
      "believe": 4574,
      "lingu": 4575,
      "suffic": 4576,
      "pakistan": 4577,
      "zen": 4578,
      "isol": 4579,
      "stories": 4580,
      "tered": 4581,
      "ounder": 4582,
      "serious": 4583,
      "writings": 4584,
      "reference": 4585,
      "49": 4586,
      "jim": 4587,
      "ored": 4588,
      "atmos": 4589,
      "prem": 4590,
      "extended": 4591,
      "electro": 4592,
      "giving": 4593,
      "catal": 4594,
      "featured": 4595,
      "rig": 4596,
      "sav": 4597,
      "1990s": 4598,
      "schwar": 4599,
      "alexand": 4600,
      "remaining": 4601,
      "student": 4602,
      "justice": 4603,
      "connected": 4604,
      "maced": 4605,
      "occurs": 4606,
      "captured": 4607,
      "got": 4608,
      "kins": 4609,
      "slow": 4610,
      "rev": 4611,
      "ulations": 4612,
      "folk": 4613,
      "drop": 4614,
      "protection": 4615,
      "bid": 4616,
      "kel": 4617,
      "pus": 4618,
      "wanted": 4619,
      "minim": 4620,
      "generation": 4621,
      "1934": 4622,
      "1923": 4623,
      "broadcast": 4624,
      "einstein": 4625,
      "sand": 4626,
      "onia": 4627,
      "attract": 4628,
      "omen": 4629,
      "lock": 4630,
      "abul": 4631,
      "aging": 4632,
      "archbishop": 4633,
      "ashes": 4634,
      "audio": 4635,
      "question": 4636,
      "anatol": 4637,
      "vation": 4638,
      "orph": 4639,
      "continue": 4640,
      "hammad": 4641,
      "instance": 4642,
      "ather": 4643,
      "eks": 4644,
      "hau": 4645,
      "arms": 4646,
      "vote": 4647,
      "declared": 4648,
      "appearance": 4649,
      "agricultural": 4650,
      "kas": 4651,
      "nt": 4652,
      "pair": 4653,
      "alo": 4654,
      "1919": 4655,
      "pel": 4656,
      "dos": 4657,
      "inscript": 4658,
      "double": 4659,
      "stream": 4660,
      "cambridge": 4661,
      "subsequently": 4662,
      "scale": 4663,
      "abortion": 4664,
      "1000": 4665,
      "lee": 4666,
      "belong": 4667,
      "igen": 4668,
      "grav": 4669,
      "tennis": 4670,
      "communities": 4671,
      "brew": 4672,
      "virt": 4673,
      "alkali": 4674,
      "slavery": 4675,
      "responsible": 4676,
      "chemistry": 4677,
      "bing": 4678,
      "removed": 4679,
      "enem": 4680,
      "phr": 4681,
      "augustus": 4682,
      "evolution": 4683,
      "stadium": 4684,
      "sie": 4685,
      "wild": 4686,
      "insp": 4687,
      "seem": 4688,
      "shar": 4689,
      "worth": 4690,
      "pra": 4691,
      "500": 4692,
      "mand": 4693,
      "sole": 4694,
      "notably": 4695,
      "izes": 4696,
      "oxford": 4697,
      "greatest": 4698,
      "teams": 4699,
      "planned": 4700,
      "intelligence": 4701,
      "diction": 4702,
      "slo": 4703,
      "slight": 4704,
      "sites": 4705,
      "exchange": 4706,
      "determined": 4707,
      "aol": 4708,
      "rh": 4709,
      "chann": 4710,
      "afonso": 4711,
      "inside": 4712,
      "continental": 4713,
      "physics": 4714,
      "silver": 4715,
      "meeting": 4716,
      "agriculture": 4717,
      "carnegie": 4718,
      "aid": 4719,
      "atures": 4720,
      "actually": 4721,
      "joint": 4722,
      "metro": 4723,
      "refused": 4724,
      "aliyah": 4725,
      "killing": 4726,
      "alqaeda": 4727,
      "78": 4728,
      "bib": 4729,
      "mn": 4730,
      "asci": 4731,
      "itic": 4732,
      "exact": 4733,
      "string": 4734,
      "preci": 4735,
      "historic": 4736,
      "scientists": 4737,
      "hardware": 4738,
      "fat": 4739,
      "fare": 4740,
      "contact": 4741,
      "join": 4742,
      "supply": 4743,
      "1931": 4744,
      "axon": 4745,
      "difference": 4746,
      "opera": 4747,
      "secondary": 4748,
      "resulted": 4749,
      "graphics": 4750,
      "throne": 4751,
      "equivalent": 4752,
      "gain": 4753,
      "nick": 4754,
      "etc": 4755,
      "perse": 4756,
      "web": 4757,
      "overall": 4758,
      "consists": 4759,
      "workers": 4760,
      "musician": 4761,
      "golden": 4762,
      "attempted": 4763,
      "says": 4764,
      "anxi": 4765,
      "onom": 4766,
      "assu": 4767,
      "1910": 4768,
      "extr": 4769,
      "mont": 4770,
      "lla": 4771,
      "1932": 4772,
      "allows": 4773,
      "introduction": 4774,
      "songs": 4775,
      "dialects": 4776,
      "zeneg": 4777,
      "schwarzeneg": 4778,
      "43": 4779,
      "aaliyah": 4780,
      "mak": 4781,
      "purch": 4782,
      "pier": 4783,
      "adap": 4784,
      "usage": 4785,
      "portr": 4786,
      "presents": 4787,
      "miner": 4788,
      "efforts": 4789,
      "worldwide": 4790,
      "causes": 4791,
      "trees": 4792,
      "buried": 4793,
      "gives": 4794,
      "description": 4795,
      "showed": 4796,
      "defend": 4797,
      "synthesis": 4798,
      "democratic": 4799,
      "lev": 4800,
      "accoun": 4801,
      "omin": 4802,
      "cies": 4803,
      "meant": 4804,
      "playing": 4805,
      "versions": 4806,
      "paralle": 4807,
      "1953": 4808,
      "animation": 4809,
      "winning": 4810,
      "officially": 4811,
      "speakers": 4812,
      "secretary": 4813,
      "committee": 4814,
      "cuisine": 4815,
      "sult": 4816,
      "plies": 4817,
      "boy": 4818,
      "avoid": 4819,
      "centaur": 4820,
      "politics": 4821,
      "mountains": 4822,
      "swe": 4823,
      "sister": 4824,
      "inian": 4825,
      "theo": 4826,
      "1935": 4827,
      "ordered": 4828,
      "management": 4829,
      "occurred": 4830,
      "dog": 4831,
      "aband": 4832,
      "170": 4833,
      "solar": 4834,
      "surroun": 4835,
      "glass": 4836,
      "technique": 4837,
      "discovery": 4838,
      "ez": 4839,
      "ón": 4840,
      "acity": 4841,
      "lyn": 4842,
      "iger": 4843,
      "heat": 4844,
      "liqu": 4845,
      "bron": 4846,
      "attention": 4847,
      "cerem": 4848,
      "understanding": 4849,
      "argument": 4850,
      "completely": 4851,
      "laure": 4852,
      "correct": 4853,
      "dark": 4854,
      "smo": 4855,
      "zy": 4856,
      "proved": 4857,
      "guard": 4858,
      "visions": 4859,
      "cycle": 4860,
      "severe": 4861,
      "ova": 4862,
      "awarded": 4863,
      "racing": 4864,
      "experiments": 4865,
      "slaves": 4866,
      "abraham": 4867,
      "cm": 4868,
      "camer": 4869,
      "chos": 4870,
      "beth": 4871,
      "1913": 4872,
      "imed": 4873,
      "angola": 4874,
      "correspon": 4875,
      "cold": 4876,
      "opposition": 4877,
      "mom": 4878,
      "walk": 4879,
      "abol": 4880,
      "modif": 4881,
      "neo": 4882,
      "grew": 4883,
      "ensity": 4884,
      "administr": 4885,
      "mexican": 4886,
      "confederate": 4887,
      "icts": 4888,
      "unlike": 4889,
      "ulate": 4890,
      "estic": 4891,
      "prepar": 4892,
      "something": 4893,
      "1970s": 4894,
      "cycl": 4895,
      "tribes": 4896,
      "skill": 4897,
      "morph": 4898,
      "statement": 4899,
      "danish": 4900,
      "dedicated": 4901,
      "advoc": 4902,
      "ashoka": 4903,
      "ottoman": 4904,
      "hat": 4905,
      "reven": 4906,
      "itation": 4907,
      "phase": 4908,
      "disci": 4909,
      "genus": 4910,
      "senate": 4911,
      "wallace": 4912,
      "khan": 4913,
      "recognized": 4914,
      "virginia": 4915,
      "anxiety": 4916,
      "tox": 4917,
      "else": 4918,
      "descent": 4919,
      "rupt": 4920,
      "arrived": 4921,
      "resources": 4922,
      "inspired": 4923,
      "ji": 4924,
      "kuro": 4925,
      "cia": 4926,
      "prep": 4927,
      "valid": 4928,
      "anchor": 4929,
      "combination": 4930,
      "aarhus": 4931,
      "citizens": 4932,
      "geometry": 4933,
      "pas": 4934,
      "iled": 4935,
      "1912": 4936,
      "loo": 4937,
      "shor": 4938,
      "marks": 4939,
      "oppos": 4940,
      "tried": 4941,
      "circum": 4942,
      "friends": 4943,
      "drive": 4944,
      "fuel": 4945,
      "amino": 4946,
      "accur": 4947,
      "unity": 4948,
      "apart": 4949,
      "abilities": 4950,
      "poi": 4951,
      "formula": 4952,
      "syll": 4953,
      "going": 4954,
      "1951": 4955,
      "organizations": 4956,
      "advant": 4957,
      "convention": 4958,
      "mexico": 4959,
      "specifically": 4960,
      "hungarian": 4961,
      "surrounding": 4962,
      "cof": 4963,
      "iced": 4964,
      "stro": 4965,
      "aston": 4966,
      "schopen": 4967,
      "1980s": 4968,
      "historians": 4969,
      "brothers": 4970,
      "cs": 4971,
      "snow": 4972,
      "sought": 4973,
      "tts": 4974,
      "particles": 4975,
      "novels": 4976,
      "schopenhau": 4977,
      "anthem": 4978,
      "nether": 4979,
      "illa": 4980,
      "maria": 4981,
      "speaking": 4982,
      "athan": 4983,
      "studied": 4984,
      "atlas": 4985,
      "scotland": 4986,
      "settlement": 4987,
      "cise": 4988,
      "hay": 4989,
      "thin": 4990,
      "theless": 4991,
      "chlor": 4992,
      "ila": 4993,
      "abd": 4994,
      "compos": 4995,
      "flag": 4996,
      "legacy": 4997,
      "differences": 4998,
      "equipment": 4999,
      "56": 5000,
      "88": 5001,
      "bbc": 5002,
      "nut": 5003,
      "va": 5004,
      "rejected": 5005,
      "encour": 5006,
      "core": 5007,
      "spap": 5008,
      "amazon": 5009,
      "41": 5010,
      "uch": 5011,
      "amin": 5012,
      "decor": 5013,
      "propos": 5014,
      "proced": 5015,
      "shared": 5016,
      "price": 5017,
      "output": 5018,
      "newspap": 5019,
      "playwright": 5020,
      "decades": 5021,
      "abandon": 5022,
      "none": 5023,
      "amate": 5024,
      "conquest": 5025,
      "boston": 5026,
      "portug": 5027,
      "soul": 5028,
      "instruments": 5029,
      "ānanda": 5030,
      "3rd": 5031,
      "42": 5032,
      "79": 5033,
      "images": 5034,
      "combat": 5035,
      "rivers": 5036,
      "worship": 5037,
      "bright": 5038,
      "content": 5039,
      "producing": 5040,
      "factors": 5041,
      "palace": 5042,
      "mixed": 5043,
      "ginsberg": 5044,
      "sultan": 5045,
      "las": 5046,
      "recomm": 5047,
      "ros": 5048,
      "urg": 5049,
      "marsh": 5050,
      "unders": 5051,
      "follows": 5052,
      "pressed": 5053,
      "owners": 5054,
      "dynam": 5055,
      "principle": 5056,
      "spiderman": 5057,
      "300": 5058,
      "sle": 5059,
      "leave": 5060,
      "entially": 5061,
      "1917": 5062,
      "raised": 5063,
      "holding": 5064,
      "standards": 5065,
      "learning": 5066,
      "netherlands": 5067,
      "lith": 5068,
      "toward": 5069,
      "weeks": 5070,
      "osto": 5071,
      "goal": 5072,
      "engineering": 5073,
      "safe": 5074,
      "subsequent": 5075,
      "hunt": 5076,
      "jun": 5077,
      "rival": 5078,
      "christians": 5079,
      "traditions": 5080,
      "powerful": 5081,
      "voice": 5082,
      "running": 5083,
      "install": 5084,
      "communication": 5085,
      "fixed": 5086,
      "cryst": 5087,
      "46": 5088,
      "dra": 5089,
      "kr": 5090,
      "sail": 5091,
      "wr": 5092,
      "1911": 5093,
      "peak": 5094,
      "tennes": 5095,
      "philosophical": 5096,
      "logical": 5097,
      "ascii": 5098,
      "rated": 5099,
      "think": 5100,
      "theod": 5101,
      "cler": 5102,
      "brain": 5103,
      "foc": 5104,
      "stein": 5105,
      "goddess": 5106,
      "helped": 5107,
      "paid": 5108,
      "easily": 5109,
      "constructed": 5110,
      "iraq": 5111,
      "cub": 5112,
      "gment": 5113,
      "projects": 5114,
      "plate": 5115,
      "ishes": 5116,
      "epis": 5117,
      "listed": 5118,
      "husband": 5119,
      "environmental": 5120,
      "agassi": 5121,
      "sor": 5122,
      "pet": 5123,
      "assass": 5124,
      "avic": 5125,
      "crete": 5126,
      "universal": 5127,
      "sales": 5128,
      "depending": 5129,
      "suggests": 5130,
      "zero": 5131,
      "saying": 5132,
      "schwarzenegger": 5133,
      "portugal": 5134,
      "bil": 5135,
      "hr": 5136,
      "inher": 5137,
      "infant": 5138,
      "tos": 5139,
      "powers": 5140,
      "ump": 5141,
      "ached": 5142,
      "solid": 5143,
      "linear": 5144,
      "talk": 5145,
      "custom": 5146,
      "advance": 5147,
      "closely": 5148,
      "teaching": 5149,
      "recently": 5150,
      "intellect": 5151,
      "invasion": 5152,
      "bibli": 5153,
      "bapt": 5154,
      "ole": 5155,
      "sport": 5156,
      "uls": 5157,
      "correspond": 5158,
      "varieties": 5159,
      "importance": 5160,
      "territories": 5161,
      "distribution": 5162,
      "houses": 5163,
      "ec": 5164,
      "kn": 5165,
      "input": 5166,
      "ctors": 5167,
      "opport": 5168,
      "memorial": 5169,
      "swiss": 5170,
      "harmon": 5171,
      "critics": 5172,
      "clubs": 5173,
      "selected": 5174,
      "voting": 5175,
      "dry": 5176,
      "km": 5177,
      "phe": 5178,
      "rates": 5179,
      "assum": 5180,
      "trave": 5181,
      "perman": 5182,
      "afri": 5183,
      "unique": 5184,
      "skin": 5185,
      "algeria": 5186,
      "dail": 5187,
      "taught": 5188,
      "ato": 5189,
      "orn": 5190,
      "acre": 5191,
      "eman": 5192,
      "survey": 5193,
      "merc": 5194,
      "oxid": 5195,
      "similarly": 5196,
      "fleet": 5197,
      "significantly": 5198,
      "carriers": 5199,
      "dol": 5200,
      "kir": 5201,
      "arrest": 5202,
      "dia": 5203,
      "gene": 5204,
      "twel": 5205,
      "frame": 5206,
      "factor": 5207,
      "passeng": 5208,
      "shortly": 5209,
      "buddhist": 5210,
      "acquired": 5211,
      "daily": 5212,
      "page": 5213,
      "reci": 5214,
      "reasons": 5215,
      "feel": 5216,
      "fox": 5217,
      "genetic": 5218,
      "organic": 5219,
      "felt": 5220,
      "professor": 5221,
      "59": 5222,
      "lers": 5223,
      "rein": 5224,
      "1916": 5225,
      "composition": 5226,
      "emen": 5227,
      "clin": 5228,
      "norm": 5229,
      "persons": 5230,
      "appeal": 5231,
      "expanded": 5232,
      "graphical": 5233,
      "turkey": 5234,
      "buddha": 5235,
      "jerus": 5236,
      "shape": 5237,
      "fresnel": 5238,
      "crowley": 5239,
      "fro": 5240,
      "wind": 5241,
      "inet": 5242,
      "consum": 5243,
      "grant": 5244,
      "harv": 5245,
      "fathers": 5246,
      "activist": 5247,
      "younger": 5248,
      "devices": 5249,
      "reports": 5250,
      "seems": 5251,
      "conference": 5252,
      "proof": 5253,
      "ries": 5254,
      "artific": 5255,
      "context": 5256,
      "colonial": 5257,
      "algorithms": 5258,
      "deliver": 5259,
      "tennessee": 5260,
      "narr": 5261,
      "anne": 5262,
      "aphas": 5263,
      "height": 5264,
      "finding": 5265,
      "anna": 5266,
      "northwest": 5267,
      "organized": 5268,
      "approval": 5269,
      "luther": 5270,
      "issued": 5271,
      "christianity": 5272,
      "principal": 5273,
      "village": 5274,
      "challeng": 5275,
      "57": 5276,
      "gg": 5277,
      "chest": 5278,
      "olas": 5279,
      "users": 5280,
      "crus": 5281,
      "ireland": 5282,
      "trial": 5283,
      "setting": 5284,
      "causing": 5285,
      "institutions": 5286,
      "ruled": 5287,
      "dialect": 5288,
      "provinces": 5289,
      "amateur": 5290,
      "rs": 5291,
      "uated": 5292,
      "roll": 5293,
      "feed": 5294,
      "strate": 5295,
      "forming": 5296,
      "ception": 5297,
      "ield": 5298,
      "employed": 5299,
      "quarter": 5300,
      "agripp": 5301,
      "jerusalem": 5302,
      "ients": 5303,
      "tap": 5304,
      "ione": 5305,
      "erson": 5306,
      "dium": 5307,
      "holds": 5308,
      "miller": 5309,
      "controlled": 5310,
      "switch": 5311,
      "windo": 5312,
      "officer": 5313,
      "hands": 5314,
      "typical": 5315,
      "poetry": 5316,
      "phenomen": 5317,
      "quantum": 5318,
      "piece": 5319,
      "pseud": 5320,
      "51": 5321,
      "founder": 5322,
      "oth": 5323,
      "ati": 5324,
      "chic": 5325,
      "noble": 5326,
      "pover": 5327,
      "visited": 5328,
      "visible": 5329,
      "variable": 5330,
      "practices": 5331,
      "logic": 5332,
      "frequency": 5333,
      "conducted": 5334,
      "adobe": 5335,
      "settled": 5336,
      "fifth": 5337,
      "antibiotics": 5338,
      "86": 5339,
      "begins": 5340,
      "why": 5341,
      "aposto": 5342,
      "iza": 5343,
      "southeast": 5344,
      "obtained": 5345,
      "drin": 5346,
      "ski": 5347,
      "describes": 5348,
      "technical": 5349,
      "circu": 5350,
      "competition": 5351,
      "albania": 5352,
      "pacific": 5353,
      "succeeded": 5354,
      "chosen": 5355,
      "gained": 5356,
      "hur": 5357,
      "plot": 5358,
      "beat": 5359,
      "cos": 5360,
      "firmed": 5361,
      "finite": 5362,
      "owned": 5363,
      "request": 5364,
      "slave": 5365,
      "destroyed": 5366,
      "components": 5367,
      "wed": 5368,
      "ening": 5369,
      "andr": 5370,
      "rif": 5371,
      "poem": 5372,
      "lies": 5373,
      "grace": 5374,
      "guide": 5375,
      "medit": 5376,
      "greeks": 5377,
      "radiation": 5378,
      "receive": 5379,
      "bishops": 5380,
      "reduce": 5381,
      "soft": 5382,
      "device": 5383,
      "railway": 5384,
      "asiatic": 5385,
      "slightly": 5386,
      "wing": 5387,
      "ying": 5388,
      "leys": 5389,
      "agen": 5390,
      "hebrew": 5391,
      "proceed": 5392,
      "webs": 5393,
      "effort": 5394,
      "increasingly": 5395,
      "hitchcock": 5396,
      "dna": 5397,
      "fought": 5398,
      "orient": 5399,
      "forward": 5400,
      "terror": 5401,
      "imag": 5402,
      "nothing": 5403,
      "oti": 5404,
      "colonies": 5405,
      "failure": 5406,
      "capture": 5407,
      "split": 5408,
      "aspirin": 5409,
      "afrika": 5410,
      "1915": 5411,
      "igan": 5412,
      "asser": 5413,
      "angles": 5414,
      "capable": 5415,
      "tribut": 5416,
      "existing": 5417,
      "scene": 5418,
      "celebrated": 5419,
      "witz": 5420,
      "premier": 5421,
      "enjoy": 5422,
      "ched": 5423,
      "usual": 5424,
      "neur": 5425,
      "jobs": 5426,
      "captain": 5427,
      "influential": 5428,
      "doctrine": 5429,
      "weapons": 5430,
      "georgia": 5431,
      "centauri": 5432,
      "rab": 5433,
      "sic": 5434,
      "inner": 5435,
      "anax": 5436,
      "remo": 5437,
      "adi": 5438,
      "compr": 5439,
      "iff": 5440,
      "canon": 5441,
      "cris": 5442,
      "oxide": 5443,
      "describe": 5444,
      "asteroids": 5445,
      "communications": 5446,
      "situation": 5447,
      "vowels": 5448,
      "bic": 5449,
      "infr": 5450,
      "income": 5451,
      "arbor": 5452,
      "rogen": 5453,
      "sector": 5454,
      "uted": 5455,
      "essential": 5456,
      "transfer": 5457,
      "alexios": 5458,
      "laureate": 5459,
      "cim": 5460,
      "ern": 5461,
      "rose": 5462,
      "stain": 5463,
      "deco": 5464,
      "user": 5465,
      "quite": 5466,
      "1950s": 5467,
      "machines": 5468,
      "korean": 5469,
      "dated": 5470,
      "mam": 5471,
      "nus": 5472,
      "chance": 5473,
      "adam": 5474,
      "apples": 5475,
      "alliance": 5476,
      "haw": 5477,
      "archimed": 5478,
      "issance": 5479,
      "courts": 5480,
      "traditionally": 5481,
      "prisoners": 5482,
      "candidate": 5483,
      "converted": 5484,
      "occasion": 5485,
      "98": 5486,
      "asph": 5487,
      "aga": 5488,
      "iana": 5489,
      "visual": 5490,
      "rick": 5491,
      "talib": 5492,
      "explain": 5493,
      "competit": 5494,
      "selection": 5495,
      "muslims": 5496,
      "manufactur": 5497,
      "leadership": 5498,
      "parents": 5499,
      "afrikaans": 5500,
      "cited": 5501,
      "sul": 5502,
      "theories": 5503,
      "eme": 5504,
      "elim": 5505,
      "18th": 5506,
      "mah": 5507,
      "indigen": 5508,
      "muhammad": 5509,
      "contained": 5510,
      "expression": 5511,
      "quarters": 5512,
      "54": 5513,
      "ku": 5514,
      "sides": 5515,
      "lem": 5516,
      "uten": 5517,
      "voy": 5518,
      "array": 5519,
      "regarding": 5520,
      "thousands": 5521,
      "descend": 5522,
      "affected": 5523,
      "ule": 5524,
      "zed": 5525,
      "reput": 5526,
      "rebell": 5527,
      "heim": 5528,
      "20thcentury": 5529,
      "ogen": 5530,
      "attemp": 5531,
      "publication": 5532,
      "classified": 5533,
      "anime": 5534,
      "eye": 5535,
      "extensive": 5536,
      "aalen": 5537,
      "amphib": 5538,
      "apostolic": 5539,
      "indigenous": 5540,
      "attempts": 5541,
      "gon": 5542,
      "ala": 5543,
      "ador": 5544,
      "abba": 5545,
      "shot": 5546,
      "serving": 5547,
      "syl": 5548,
      "suppor": 5549,
      "1908": 5550,
      "brevi": 5551,
      "cules": 5552,
      "anean": 5553,
      "electronic": 5554,
      "angeles": 5555,
      "120": 5556,
      "consu": 5557,
      "agan": 5558,
      "roma": 5559,
      "neuro": 5560,
      "disk": 5561,
      "elections": 5562,
      "build": 5563,
      "affairs": 5564,
      "entirely": 5565,
      "criminal": 5566,
      "anthropology": 5567,
      "therapy": 5568,
      "twenty": 5569,
      "poverty": 5570,
      "kent": 5571,
      "ost": 5572,
      "ami": 5573,
      "aware": 5574,
      "newton": 5575,
      "medal": 5576,
      "burgh": 5577,
      "recording": 5578,
      "practical": 5579,
      "symbols": 5580,
      "occupied": 5581,
      "attributed": 5582,
      "liquid": 5583,
      "gulf": 5584,
      "hed": 5585,
      "scri": 5586,
      "iter": 5587,
      "route": 5588,
      "afl": 5589,
      "achuse": 5590,
      "preced": 5591,
      "successor": 5592,
      "massachuse": 5593,
      "providing": 5594,
      "successfully": 5595,
      "concluded": 5596,
      "aach": 5597,
      "fc": 5598,
      "hour": 5599,
      "wound": 5600,
      "eric": 5601,
      "acou": 5602,
      "opin": 5603,
      "treated": 5604,
      "christie": 5605,
      "plicit": 5606,
      "vietnam": 5607,
      "ukrain": 5608,
      "erranean": 5609,
      "pianist": 5610,
      "achieved": 5611,
      "csm": 5612,
      "dc": 5613,
      "mere": 5614,
      "vast": 5615,
      "conds": 5616,
      "iring": 5617,
      "marine": 5618,
      "attend": 5619,
      "continent": 5620,
      "argon": 5621,
      "formerly": 5622,
      "towns": 5623,
      "satis": 5624,
      "constantino": 5625,
      "osaurus": 5626,
      "adapted": 5627,
      "chicago": 5628,
      "mediterranean": 5629,
      "massachusetts": 5630,
      "nfl": 5631,
      "rhe": 5632,
      "replac": 5633,
      "orus": 5634,
      "root": 5635,
      "divers": 5636,
      "trys": 5637,
      "artistic": 5638,
      "creating": 5639,
      "countrys": 5640,
      "charged": 5641,
      "1600": 5642,
      "stephen": 5643,
      "legend": 5644,
      "designated": 5645,
      "massoud": 5646,
      "naval": 5647,
      "exception": 5648,
      "siege": 5649,
      "constantinople": 5650,
      "hence": 5651,
      "jon": 5652,
      "mers": 5653,
      "alum": 5654,
      "eness": 5655,
      "chess": 5656,
      "abbrevi": 5657,
      "phos": 5658,
      "coordin": 5659,
      "actual": 5660,
      "collabor": 5661,
      "compat": 5662,
      "guil": 5663,
      "useful": 5664,
      "consci": 5665,
      "appropri": 5666,
      "defence": 5667,
      "sympto": 5668,
      "penins": 5669,
      "criticism": 5670,
      "executive": 5671,
      "category": 5672,
      "juris": 5673,
      "bt": 5674,
      "mous": 5675,
      "aling": 5676,
      "tood": 5677,
      "entry": 5678,
      "iders": 5679,
      "cool": 5680,
      "shire": 5681,
      "ials": 5682,
      "rence": 5683,
      "internet": 5684,
      "alexanders": 5685,
      "matic": 5686,
      "campus": 5687,
      "facilities": 5688,
      "institution": 5689,
      "walls": 5690,
      "wales": 5691,
      "gather": 5692,
      "accident": 5693,
      "ambrose": 5694,
      "sufficient": 5695,
      "poirot": 5696,
      "understood": 5697,
      "artificial": 5698,
      "bure": 5699,
      "gor": 5700,
      "map": 5701,
      "indo": 5702,
      "alchem": 5703,
      "plans": 5704,
      "capacity": 5705,
      "founding": 5706,
      "myster": 5707,
      "signs": 5708,
      "classification": 5709,
      "expedition": 5710,
      "1906": 5711,
      "limit": 5712,
      "restaur": 5713,
      "aurang": 5714,
      "faces": 5715,
      "safety": 5716,
      "bag": 5717,
      "gate": 5718,
      "inhabit": 5719,
      "chair": 5720,
      "exer": 5721,
      "ultimately": 5722,
      "carl": 5723,
      "developing": 5724,
      "processes": 5725,
      "custo": 5726,
      "negoti": 5727,
      "separated": 5728,
      "application": 5729,
      "publishing": 5730,
      "prayer": 5731,
      "uan": 5732,
      "var": 5733,
      "wan": 5734,
      "resem": 5735,
      "alber": 5736,
      "roasiatic": 5737,
      "ampl": 5738,
      "eliza": 5739,
      "romans": 5740,
      "copy": 5741,
      "manus": 5742,
      "sher": 5743,
      "fru": 5744,
      "politan": 5745,
      "legit": 5746,
      "passing": 5747,
      "connection": 5748,
      "demand": 5749,
      "conventional": 5750,
      "extremely": 5751,
      "thousand": 5752,
      "advantage": 5753,
      "fly": 5754,
      "gd": 5755,
      "rational": 5756,
      "iny": 5757,
      "innov": 5758,
      "theore": 5759,
      "reactions": 5760,
      "chwitz": 5761,
      "abstr": 5762,
      "estonian": 5763,
      "parties": 5764,
      "domestic": 5765,
      "1909": 5766,
      "reflect": 5767,
      "saturn": 5768,
      "ministry": 5769,
      "victim": 5770,
      "aphasia": 5771,
      "76": 5772,
      "96": 5773,
      "fash": 5774,
      "lon": 5775,
      "mm": 5776,
      "som": 5777,
      "zone": 5778,
      "chy": 5779,
      "aman": 5780,
      "affect": 5781,
      "ibm": 5782,
      "ideal": 5783,
      "supporting": 5784,
      "netic": 5785,
      "auschwitz": 5786,
      "ratio": 5787,
      "cinem": 5788,
      "schopenhauer": 5789,
      "bible": 5790,
      "pin": 5791,
      "inth": 5792,
      "movie": 5793,
      "finished": 5794,
      "ologies": 5795,
      "bust": 5796,
      "calls": 5797,
      "identify": 5798,
      "etym": 5799,
      "communion": 5800,
      "1903": 5801,
      "processing": 5802,
      "mount": 5803,
      "improved": 5804,
      "documents": 5805,
      "brazilian": 5806,
      "census": 5807,
      "drawn": 5808,
      "symptoms": 5809,
      "cze": 5810,
      "gel": 5811,
      "iar": 5812,
      "rows": 5813,
      "irs": 5814,
      "vere": 5815,
      "monaster": 5816,
      "disput": 5817,
      "obtain": 5818,
      "particle": 5819,
      "approved": 5820,
      "greatly": 5821,
      "statue": 5822,
      "behavior": 5823,
      "orbital": 5824,
      "jesus": 5825,
      "strength": 5826,
      "bibliography": 5827,
      "pad": 5828,
      "staff": 5829,
      "seconds": 5830,
      "immigr": 5831,
      "superi": 5832,
      "otherwise": 5833,
      "newly": 5834,
      "origins": 5835,
      "vessel": 5836,
      "zeus": 5837,
      "historically": 5838,
      "sequence": 5839,
      "freder": 5840,
      "nevertheless": 5841,
      "employment": 5842,
      "consisting": 5843,
      "invented": 5844,
      "witness": 5845,
      "printed": 5846,
      "citizen": 5847,
      "parallel": 5848,
      "corresponding": 5849,
      "85": 5850,
      "infl": 5851,
      "aria": 5852,
      "unci": 5853,
      "somewhat": 5854,
      "requires": 5855,
      "1905": 5856,
      "youth": 5857,
      "attacked": 5858,
      "astronomical": 5859,
      "austria": 5860,
      "astrology": 5861,
      "bacteria": 5862,
      "anatolia": 5863,
      "bou": 5864,
      "ees": 5865,
      "gil": 5866,
      "ariz": 5867,
      "bean": 5868,
      "agent": 5869,
      "actors": 5870,
      "bob": 5871,
      "substit": 5872,
      "viewed": 5873,
      "decay": 5874,
      "penn": 5875,
      "amazing": 5876,
      "protestant": 5877,
      "municipal": 5878,
      "aurangze": 5879,
      "400": 5880,
      "kad": 5881,
      "nan": 5882,
      "nish": 5883,
      "uz": 5884,
      "uge": 5885,
      "depos": 5886,
      "veget": 5887,
      "iment": 5888,
      "affil": 5889,
      "granted": 5890,
      "otic": 5891,
      "identity": 5892,
      "azerbaijani": 5893,
      "temperatures": 5894,
      "hijack": 5895,
      "mechanical": 5896,
      "eyes": 5897,
      "ordinary": 5898,
      "comparison": 5899,
      "antibiotic": 5900,
      "mist": 5901,
      "tus": 5902,
      "vs": 5903,
      "alar": 5904,
      "asu": 5905,
      "perce": 5906,
      "register": 5907,
      "collected": 5908,
      "opening": 5909,
      "circle": 5910,
      "walter": 5911,
      "principles": 5912,
      "suffered": 5913,
      "asphalt": 5914,
      "aachen": 5915,
      "hil": 5916,
      "push": 5917,
      "tact": 5918,
      "atine": 5919,
      "roger": 5920,
      "admir": 5921,
      "shel": 5922,
      "directors": 5923,
      "testing": 5924,
      "alkal": 5925,
      "styles": 5926,
      "indicate": 5927,
      "exclus": 5928,
      "divine": 5929,
      "straight": 5930,
      "87": 5931,
      "eag": 5932,
      "fi": 5933,
      "fine": 5934,
      "gol": 5935,
      "harm": 5936,
      "vit": 5937,
      "reform": 5938,
      "memo": 5939,
      "foss": 5940,
      "adel": 5941,
      "classes": 5942,
      "1907": 5943,
      "titles": 5944,
      "instrument": 5945,
      "pieces": 5946,
      "concentration": 5947,
      "index": 5948,
      "kom": 5949,
      "stay": 5950,
      "explan": 5951,
      "sodium": 5952,
      "mental": 5953,
      "fear": 5954,
      "assigned": 5955,
      "sched": 5956,
      "medium": 5957,
      "solutions": 5958,
      "designer": 5959,
      "nearby": 5960,
      "popularity": 5961,
      "heavily": 5962,
      "respect": 5963,
      "photograph": 5964,
      "absor": 5965,
      "atmosphere": 5966,
      "modified": 5967,
      "strategy": 5968,
      "vice": 5969,
      "yel": 5970,
      "ée": 5971,
      "theolog": 5972,
      "amental": 5973,
      "constell": 5974,
      "resto": 5975,
      "etime": 5976,
      "trig": 5977,
      "ighter": 5978,
      "spart": 5979,
      "poses": 5980,
      "citys": 5981,
      "representation": 5982,
      "navig": 5983,
      "cardinal": 5984,
      "hellen": 5985,
      "picture": 5986,
      "discipl": 5987,
      "twelve": 5988,
      "arizona": 5989,
      "61": 5990,
      "dates": 5991,
      "til": 5992,
      "vac": 5993,
      "represents": 5994,
      "seat": 5995,
      "urally": 5996,
      "elder": 5997,
      "strateg": 5998,
      "oting": 5999,
      "kee": 6000,
      "1904": 6001,
      "senior": 6002,
      "labour": 6003,
      "judge": 6004,
      "mosque": 6005,
      "propag": 6006,
      "illustrator": 6007,
      "drugs": 6008,
      "incorporated": 6009,
      "carolina": 6010,
      "prepared": 6011,
      "taliban": 6012,
      "soil": 6013,
      "cook": 6014,
      "matches": 6015,
      "caster": 6016,
      "1902": 6017,
      "daniel": 6018,
      "protect": 6019,
      "officials": 6020,
      "conductor": 6021,
      "platform": 6022,
      "debate": 6023,
      "babyl": 6024,
      "ambros": 6025,
      "nucleus": 6026,
      "tanks": 6027,
      "aspects": 6028,
      "channel": 6029,
      "peninsula": 6030,
      "4th": 6031,
      "bah": 6032,
      "tall": 6033,
      "wrest": 6034,
      "waves": 6035,
      "edia": 6036,
      "izon": 6037,
      "doctor": 6038,
      "interior": 6039,
      "flat": 6040,
      "runs": 6041,
      "destru": 6042,
      "connect": 6043,
      "transportation": 6044,
      "andorra": 6045,
      "toxic": 6046,
      "kurosaw": 6047,
      "63": 6048,
      "72": 6049,
      "eat": 6050,
      "task": 6051,
      "wides": 6052,
      "roots": 6053,
      "unable": 6054,
      "abc": 6055,
      "essay": 6056,
      "shad": 6057,
      "haz": 6058,
      "formally": 6059,
      "johann": 6060,
      "increases": 6061,
      "statist": 6062,
      "paint": 6063,
      "measures": 6064,
      "roads": 6065,
      "experienced": 6066,
      "chapter": 6067,
      "resolution": 6068,
      "ranked": 6069,
      "moment": 6070,
      "53": 6071,
      "kb": 6072,
      "rey": 6073,
      "andron": 6074,
      "confirmed": 6075,
      "extra": 6076,
      "cot": 6077,
      "schwe": 6078,
      "universe": 6079,
      "extent": 6080,
      "communist": 6081,
      "arabs": 6082,
      "salier": 6083,
      "uba": 6084,
      "characteristics": 6085,
      "nitrogen": 6086,
      "experimental": 6087,
      "revolutionary": 6088,
      "columbia": 6089,
      "florida": 6090,
      "superior": 6091,
      "clop": 6092,
      "danger": 6093,
      "jah": 6094,
      "kur": 6095,
      "pig": 6096,
      "wick": 6097,
      "anatom": 6098,
      "itors": 6099,
      "accompan": 6100,
      "apat": 6101,
      "hein": 6102,
      "emor": 6103,
      "dial": 6104,
      "libert": 6105,
      "discover": 6106,
      "crime": 6107,
      "1930s": 6108,
      "romanian": 6109,
      "1861": 6110,
      "alongside": 6111,
      "franch": 6112,
      "liberal": 6113,
      "favour": 6114,
      "electrical": 6115,
      "prophe": 6116,
      "mythology": 6117,
      "archimedes": 6118,
      "kurosawa": 6119,
      "accompanied": 6120,
      "69": 6121,
      "enz": 6122,
      "editor": 6123,
      "agram": 6124,
      "exists": 6125,
      "coal": 6126,
      "cogn": 6127,
      "berlin": 6128,
      "pread": 6129,
      "speer": 6130,
      "explos": 6131,
      "animated": 6132,
      "apped": 6133,
      "strongly": 6134,
      "recognition": 6135,
      "consistent": 6136,
      "migration": 6137,
      "sweden": 6138,
      "5th": 6139,
      "89": 6140,
      "kil": 6141,
      "icus": 6142,
      "advert": 6143,
      "expo": 6144,
      "neither": 6145,
      "odes": 6146,
      "ogical": 6147,
      "strugg": 6148,
      "officers": 6149,
      "optim": 6150,
      "revealed": 6151,
      "octav": 6152,
      "pierre": 6153,
      "bronze": 6154,
      "abandoned": 6155,
      "phosph": 6156,
      "bond": 6157,
      "jones": 6158,
      "sau": 6159,
      "your": 6160,
      "ette": 6161,
      "diagno": 6162,
      "corn": 6163,
      "ulture": 6164,
      "apping": 6165,
      "profit": 6166,
      "involve": 6167,
      "measured": 6168,
      "michigan": 6169,
      "surviving": 6170,
      "waters": 6171,
      "antimony": 6172,
      "repeated": 6173,
      "neutral": 6174,
      "permanent": 6175,
      "widespread": 6176,
      "pup": 6177,
      "tark": 6178,
      "yan": 6179,
      "adri": 6180,
      "poland": 6181,
      "rena": 6182,
      "ller": 6183,
      "jection": 6184,
      "roughly": 6185,
      "simpl": 6186,
      "authorities": 6187,
      "banks": 6188,
      "presidential": 6189,
      "damage": 6190,
      "explained": 6191,
      "astronomy": 6192,
      "astronomer": 6193,
      "dominant": 6194,
      "corporation": 6195,
      "sculptor": 6196,
      "bakr": 6197,
      "drew": 6198,
      "normally": 6199,
      "kit": 6200,
      "escape": 6201,
      "shir": 6202,
      "cancer": 6203,
      "preh": 6204,
      "interface": 6205,
      "commemor": 6206,
      "universities": 6207,
      "treas": 6208,
      "patients": 6209,
      "swim": 6210,
      "ikos": 6211,
      "additionally": 6212,
      "songwriter": 6213,
      "complexity": 6214,
      "coastal": 6215,
      "accused": 6216,
      "nazi": 6217,
      "agrippina": 6218,
      "jet": 6219,
      "uate": 6220,
      "inhib": 6221,
      "agency": 6222,
      "allies": 6223,
      "ogue": 6224,
      "eva": 6225,
      "patent": 6226,
      "tests": 6227,
      "managed": 6228,
      "ruler": 6229,
      "africanamerican": 6230,
      "isotop": 6231,
      "learned": 6232,
      "effectively": 6233,
      "maximum": 6234,
      "website": 6235,
      "52": 6236,
      "hindu": 6237,
      "pione": 6238,
      "sax": 6239,
      "plut": 6240,
      "antide": 6241,
      "ota": 6242,
      "norwe": 6243,
      "armies": 6244,
      "christo": 6245,
      "operated": 6246,
      "factory": 6247,
      "planets": 6248,
      "needs": 6249,
      "crewed": 6250,
      "meso": 6251,
      "comedy": 6252,
      "computing": 6253,
      "neighbor": 6254,
      "focused": 6255,
      "62": 6256,
      "nh": 6257,
      "napo": 6258,
      "sri": 6259,
      "rebel": 6260,
      "adding": 6261,
      "adhes": 6262,
      "unds": 6263,
      "iding": 6264,
      "aviation": 6265,
      "armoured": 6266,
      "maintained": 6267,
      "volcan": 6268,
      "goes": 6269,
      "steve": 6270,
      "merch": 6271,
      "missile": 6272,
      "powered": 6273,
      "locations": 6274,
      "keyboard": 6275,
      "studio": 6276,
      "antibodies": 6277,
      "tomb": 6278,
      "survived": 6279,
      "apost": 6280,
      "truth": 6281,
      "alleged": 6282,
      "ambigu": 6283,
      "gem": 6284,
      "lt": 6285,
      "mong": 6286,
      "pitch": 6287,
      "tet": 6288,
      "wolf": 6289,
      "ardi": 6290,
      "outer": 6291,
      "elli": 6292,
      "clim": 6293,
      "pregn": 6294,
      "preferred": 6295,
      "broke": 6296,
      "womens": 6297,
      "algae": 6298,
      "pursu": 6299,
      "branches": 6300,
      "metropolitan": 6301,
      "77": 6302,
      "cart": 6303,
      "nich": 6304,
      "pm": 6305,
      "ativity": 6306,
      "asc": 6307,
      "icill": 6308,
      "lex": 6309,
      "aby": 6310,
      "afts": 6311,
      "twice": 6312,
      "acknow": 6313,
      "ario": 6314,
      "valu": 6315,
      "designs": 6316,
      "glas": 6317,
      "movements": 6318,
      "researchers": 6319,
      "novelist": 6320,
      "goods": 6321,
      "violence": 6322,
      "collap": 6323,
      "americas": 6324,
      "interpretation": 6325,
      "assumed": 6326,
      "fashion": 6327,
      "tarkov": 6328,
      "norwegian": 6329,
      "6th": 6330,
      "gur": 6331,
      "uck": 6332,
      "zhen": 6333,
      "ani": 6334,
      "conse": 6335,
      "mention": 6336,
      "poll": 6337,
      "classic": 6338,
      "governments": 6339,
      "patron": 6340,
      "radical": 6341,
      "belgian": 6342,
      "horse": 6343,
      "laboratory": 6344,
      "copper": 6345,
      "fundamental": 6346,
      "pronounced": 6347,
      "candidates": 6348,
      "americium": 6349,
      "perseus": 6350,
      "dun": 6351,
      "file": 6352,
      "nie": 6353,
      "rons": 6354,
      "tren": 6355,
      "infect": 6356,
      "armin": 6357,
      "chamber": 6358,
      "degre": 6359,
      "bear": 6360,
      "agu": 6361,
      "acted": 6362,
      "assium": 6363,
      "specul": 6364,
      "herit": 6365,
      "warri": 6366,
      "job": 6367,
      "consent": 6368,
      "albanian": 6369,
      "inhabitants": 6370,
      "degrees": 6371,
      "mr": 6372,
      "tical": 6373,
      "icel": 6374,
      "lewis": 6375,
      "verte": 6376,
      "emiss": 6377,
      "diac": 6378,
      "hair": 6379,
      "interview": 6380,
      "17th": 6381,
      "subjects": 6382,
      "surrender": 6383,
      "holid": 6384,
      "economist": 6385,
      "massive": 6386,
      "potassium": 6387,
      "audience": 6388,
      "sample": 6389,
      "figur": 6390,
      "involves": 6391,
      "incident": 6392,
      "teacher": 6393,
      "ptole": 6394,
      "emerged": 6395,
      "executed": 6396,
      "details": 6397,
      "championship": 6398,
      "circuit": 6399,
      "reputation": 6400,
      "jr": 6401,
      "want": 6402,
      "acce": 6403,
      "ilit": 6404,
      "ille": 6405,
      "abbey": 6406,
      "petro": 6407,
      "iful": 6408,
      "yearold": 6409,
      "airline": 6410,
      "deploy": 6411,
      "background": 6412,
      "personnel": 6413,
      "denmark": 6414,
      "21st": 6415,
      "scientist": 6416,
      "entertain": 6417,
      "wheel": 6418,
      "constitutional": 6419,
      "beliefs": 6420,
      "1601": 6421,
      "aix": 6422,
      "kon": 6423,
      "atus": 6424,
      "edge": 6425,
      "amine": 6426,
      "commod": 6427,
      "fection": 6428,
      "understand": 6429,
      "uniform": 6430,
      "mississ": 6431,
      "balance": 6432,
      "statistics": 6433,
      "1862": 6434,
      "samples": 6435,
      "mixt": 6436,
      "lieuten": 6437,
      "fragments": 6438,
      "filled": 6439,
      "tz": 6440,
      "inals": 6441,
      "revers": 6442,
      "oria": 6443,
      "icon": 6444,
      "aint": 6445,
      "clar": 6446,
      "bod": 6447,
      "partners": 6448,
      "ippi": 6449,
      "awa": 6450,
      "oppon": 6451,
      "fict": 6452,
      "operate": 6453,
      "ankara": 6454,
      "educational": 6455,
      "alternate": 6456,
      "conquered": 6457,
      "opposite": 6458,
      "theorem": 6459,
      "dür": 6460,
      "gent": 6461,
      "hier": 6462,
      "uble": 6463,
      "thal": 6464,
      "rout": 6465,
      "load": 6466,
      "agor": 6467,
      "extract": 6468,
      "explicit": 6469,
      "astatine": 6470,
      "format": 6471,
      "writes": 6472,
      "consult": 6473,
      "transition": 6474,
      "valent": 6475,
      "cathe": 6476,
      "expensive": 6477,
      "changing": 6478,
      "concepts": 6479,
      "accounts": 6480,
      "theoret": 6481,
      "cous": 6482,
      "jar": 6483,
      "uce": 6484,
      "ende": 6485,
      "orchest": 6486,
      "leaves": 6487,
      "ishing": 6488,
      "perfect": 6489,
      "shif": 6490,
      "axis": 6491,
      "considerable": 6492,
      "asterix": 6493,
      "1898": 6494,
      "showing": 6495,
      "alien": 6496,
      "contributed": 6497,
      "extension": 6498,
      "benefit": 6499,
      "component": 6500,
      "carrying": 6501,
      "conservative": 6502,
      "administrative": 6503,
      "czech": 6504,
      "97": 6505,
      "bann": 6506,
      "kor": 6507,
      "rice": 6508,
      "sper": 6509,
      "ori": 6510,
      "strict": 6511,
      "syria": 6512,
      "renamed": 6513,
      "intent": 6514,
      "link": 6515,
      "128": 6516,
      "eases": 6517,
      "gradually": 6518,
      "arsenal": 6519,
      "manufacturing": 6520,
      "promise": 6521,
      "iranian": 6522,
      "elizabeth": 6523,
      "lieutenant": 6524,
      "fictional": 6525,
      "cards": 6526,
      "dating": 6527,
      "iop": 6528,
      "nur": 6529,
      "edict": 6530,
      "stations": 6531,
      "minis": 6532,
      "laid": 6533,
      "icket": 6534,
      "originated": 6535,
      "expand": 6536,
      "controvers": 6537,
      "cultiv": 6538,
      "reduction": 6539,
      "emperors": 6540,
      "argues": 6541,
      "intellectual": 6542,
      "etymology": 6543,
      "bun": 6544,
      "lus": 6545,
      "inary": 6546,
      "theology": 6547,
      "refr": 6548,
      "amway": 6549,
      "acle": 6550,
      "agp": 6551,
      "aux": 6552,
      "illness": 6553,
      "lowest": 6554,
      "ension": 6555,
      "ologists": 6556,
      "solzhen": 6557,
      "winners": 6558,
      "periods": 6559,
      "representing": 6560,
      "antiqu": 6561,
      "papers": 6562,
      "saints": 6563,
      "isode": 6564,
      "rotation": 6565,
      "vertical": 6566,
      "message": 6567,
      "unciation": 6568,
      "aurangzeb": 6569,
      "icillin": 6570,
      "solzhenits": 6571,
      "eur": 6572,
      "fame": 6573,
      "lag": 6574,
      "noun": 6575,
      "inser": 6576,
      "retain": 6577,
      "atp": 6578,
      "stig": 6579,
      "poems": 6580,
      "antarctic": 6581,
      "shut": 6582,
      "diseases": 6583,
      "fled": 6584,
      "grounds": 6585,
      "continues": 6586,
      "1865": 6587,
      "alkanes": 6588,
      "concerned": 6589,
      "rodin": 6590,
      "philipp": 6591,
      "confess": 6592,
      "fresh": 6593,
      "uranium": 6594,
      "dramat": 6595,
      "enemy": 6596,
      "dictionary": 6597,
      "ceremony": 6598,
      "abstract": 6599,
      "affili": 6600,
      "isotopes": 6601,
      "mississippi": 6602,
      "furn": 6603,
      "gord": 6604,
      "asy": 6605,
      "agents": 6606,
      "heard": 6607,
      "proton": 6608,
      "poison": 6609,
      "phones": 6610,
      "manner": 6611,
      "prefer": 6612,
      "parad": 6613,
      "arius": 6614,
      "cribed": 6615,
      "drum": 6616,
      "drama": 6617,
      "cultures": 6618,
      "antibody": 6619,
      "ethics": 6620,
      "protein": 6621,
      "featuring": 6622,
      "encyclop": 6623,
      "functional": 6624,
      "acropolis": 6625,
      "employees": 6626,
      "possibility": 6627,
      "demonstrated": 6628,
      "victoria": 6629,
      "avicenna": 6630,
      "heritage": 6631,
      "athe": 6632,
      "density": 6633,
      "iency": 6634,
      "matt": 6635,
      "quran": 6636,
      "stack": 6637,
      "proportion": 6638,
      "allen": 6639,
      "feet": 6640,
      "contest": 6641,
      "doing": 6642,
      "barbar": 6643,
      "titled": 6644,
      "autonom": 6645,
      "semitic": 6646,
      "aneous": 6647,
      "vania": 6648,
      "1896": 6649,
      "princess": 6650,
      "rulers": 6651,
      "decline": 6652,
      "hux": 6653,
      "observations": 6654,
      "hopkins": 6655,
      "rapidly": 6656,
      "actinium": 6657,
      "newspaper": 6658,
      "crisis": 6659,
      "113": 6660,
      "ero": 6661,
      "theor": 6662,
      "esco": 6663,
      "19thcentury": 6664,
      "uncertain": 6665,
      "boat": 6666,
      "aka": 6667,
      "portra": 6668,
      "pre1600": 6669,
      "basin": 6670,
      "metaph": 6671,
      "episode": 6672,
      "establishment": 6673,
      "bibl": 6674,
      "representatives": 6675,
      "protected": 6676,
      "williams": 6677,
      "horizon": 6678,
      "involving": 6679,
      "assembl": 6680,
      "watch": 6681,
      "investigation": 6682,
      "indeed": 6683,
      "1901present": 6684,
      "isolated": 6685,
      "inscriptions": 6686,
      "rebellion": 6687,
      "exposure": 6688,
      "renaissance": 6689,
      "16011900": 6690,
      "cathedr": 6691,
      "vas": 6692,
      "wart": 6693,
      "inity": 6694,
      "enge": 6695,
      "cha": 6696,
      "convict": 6697,
      "sovere": 6698,
      "attended": 6699,
      "decade": 6700,
      "concerning": 6701,
      "consisted": 6702,
      "sayy": 6703,
      "looking": 6704,
      "vertebr": 6705,
      "sovereign": 6706,
      "cen": 6707,
      "cers": 6708,
      "jacqu": 6709,
      "kabul": 6710,
      "lank": 6711,
      "scar": 6712,
      "arn": 6713,
      "tools": 6714,
      "rix": 6715,
      "diverse": 6716,
      "trained": 6717,
      "door": 6718,
      "attached": 6719,
      "16th": 6720,
      "refuge": 6721,
      "recovery": 6722,
      "donald": 6723,
      "assistance": 6724,
      "rounded": 6725,
      "francisco": 6726,
      "friedrich": 6727,
      "opportunity": 6728,
      "gdp": 6729,
      "antidepress": 6730,
      "tles": 6731,
      "eries": 6732,
      "encounter": 6733,
      "asl": 6734,
      "advis": 6735,
      "umental": 6736,
      "manif": 6737,
      "brun": 6738,
      "compil": 6739,
      "highway": 6740,
      "supposed": 6741,
      "variations": 6742,
      "clean": 6743,
      "crops": 6744,
      "arguments": 6745,
      "1899": 6746,
      "samuel": 6747,
      "phoen": 6748,
      "seventh": 6749,
      "tourism": 6750,
      "lady": 6751,
      "selling": 6752,
      "evolved": 6753,
      "relief": 6754,
      "welsh": 6755,
      "molecules": 6756,
      "bureau": 6757,
      "aque": 6758,
      "dic": 6759,
      "obl": 6760,
      "pical": 6761,
      "zz": 6762,
      "arith": 6763,
      "leo": 6764,
      "usa": 6765,
      "agree": 6766,
      "agues": 6767,
      "sustain": 6768,
      "allied": 6769,
      "shop": 6770,
      "earl": 6771,
      "partly": 6772,
      "disp": 6773,
      "armour": 6774,
      "leads": 6775,
      "switzer": 6776,
      "existed": 6777,
      "separation": 6778,
      "farming": 6779,
      "adesh": 6780,
      "ifying": 6781,
      "commissioned": 6782,
      "geography": 6783,
      "allosaurus": 6784,
      "rarely": 6785,
      "substance": 6786,
      "alexandria": 6787,
      "flower": 6788,
      "gence": 6789,
      "lé": 6790,
      "mugh": 6791,
      "vous": 6792,
      "ering": 6793,
      "theme": 6794,
      "altru": 6795,
      "tower": 6796,
      "ishment": 6797,
      "hism": 6798,
      "clay": 6799,
      "ighth": 6800,
      "boards": 6801,
      "akkad": 6802,
      "canter": 6803,
      "southwest": 6804,
      "asteroid": 6805,
      "processor": 6806,
      "reducing": 6807,
      "arthrit": 6808,
      "sculpture": 6809,
      "karl": 6810,
      "preserved": 6811,
      "credited": 6812,
      "sleep": 6813,
      "alchemy": 6814,
      "frederick": 6815,
      "switzerland": 6816,
      "7th": 6817,
      "bis": 6818,
      "hd": 6819,
      "rud": 6820,
      "ena": 6821,
      "andro": 6822,
      "stones": 6823,
      "chose": 6824,
      "diet": 6825,
      "deriv": 6826,
      "intermedi": 6827,
      "carib": 6828,
      "produces": 6829,
      "mayor": 6830,
      "substant": 6831,
      "miles": 6832,
      "clock": 6833,
      "hydrox": 6834,
      "check": 6835,
      "approxim": 6836,
      "random": 6837,
      "consonant": 6838,
      "infantry": 6839,
      "shadow": 6840,
      "fred": 6841,
      "rics": 6842,
      "aly": 6843,
      "determ": 6844,
      "absal": 6845,
      "persu": 6846,
      "prices": 6847,
      "eves": 6848,
      "gency": 6849,
      "specim": 6850,
      "systematic": 6851,
      "publications": 6852,
      "aired": 6853,
      "birds": 6854,
      "kenned": 6855,
      "arranged": 6856,
      "accordion": 6857,
      "dropped": 6858,
      "supporters": 6859,
      "biblical": 6860,
      "determine": 6861,
      "recon": 6862,
      "org": 6863,
      "amend": 6864,
      "ura": 6865,
      "abled": 6866,
      "hex": 6867,
      "heli": 6868,
      "suic": 6869,
      "monitor": 6870,
      "northeast": 6871,
      "salam": 6872,
      "equation": 6873,
      "houston": 6874,
      "bird": 6875,
      "faced": 6876,
      "rocket": 6877,
      "predomin": 6878,
      "exec": 6879,
      "distinction": 6880,
      "bottom": 6881,
      "consonants": 6882,
      "gri": 6883,
      "iver": 6884,
      "jay": 6885,
      "lists": 6886,
      "tag": 6887,
      "alps": 6888,
      "stim": 6889,
      "adult": 6890,
      "velo": 6891,
      "convin": 6892,
      "conversion": 6893,
      "losing": 6894,
      "poets": 6895,
      "diver": 6896,
      "weather": 6897,
      "earths": 6898,
      "insur": 6899,
      "indones": 6900,
      "steps": 6901,
      "retre": 6902,
      "headquarters": 6903,
      "1863": 6904,
      "algiers": 6905,
      "atlanta": 6906,
      "floor": 6907,
      "dominated": 6908,
      "contributions": 6909,
      "absence": 6910,
      "israeli": 6911,
      "harvard": 6912,
      "kal": 6913,
      "ère": 6914,
      "thro": 6915,
      "alc": 6916,
      "items": 6917,
      "entr": 6918,
      "prose": 6919,
      "comic": 6920,
      "compreh": 6921,
      "residents": 6922,
      "diam": 6923,
      "math": 6924,
      "disorder": 6925,
      "anything": 6926,
      "transferred": 6927,
      "hyper": 6928,
      "solved": 6929,
      "variation": 6930,
      "bush": 6931,
      "passage": 6932,
      "1891": 6933,
      "biological": 6934,
      "potam": 6935,
      "purposes": 6936,
      "documentary": 6937,
      "beauty": 6938,
      "anaxim": 6939,
      "pennsyl": 6940,
      "bian": 6941,
      "cass": 6942,
      "hans": 6943,
      "hugh": 6944,
      "iro": 6945,
      "vant": 6946,
      "theas": 6947,
      "theater": 6948,
      "andy": 6949,
      "seas": 6950,
      "excess": 6951,
      "traf": 6952,
      "trust": 6953,
      "cosm": 6954,
      "manuel": 6955,
      "oty": 6956,
      "renal": 6957,
      "grown": 6958,
      "armstrong": 6959,
      "inois": 6960,
      "heaven": 6961,
      "conduct": 6962,
      "violin": 6963,
      "spectrum": 6964,
      "aaron": 6965,
      "priests": 6966,
      "narrow": 6967,
      "clinical": 6968,
      "conscious": 6969,
      "wrestler": 6970,
      "andronikos": 6971,
      "110": 6972,
      "bone": 6973,
      "een": 6974,
      "h2": 6975,
      "mud": 6976,
      "ote": 6977,
      "xx": 6978,
      "editions": 6979,
      "stics": 6980,
      "oul": 6981,
      "aced": 6982,
      "aret": 6983,
      "cide": 6984,
      "grave": 6985,
      "evangel": 6986,
      "spelling": 6987,
      "linked": 6988,
      "curs": 6989,
      "singles": 6990,
      "populations": 6991,
      "troy": 6992,
      "1895": 6993,
      "proteins": 6994,
      "davis": 6995,
      "guns": 6996,
      "mechanism": 6997,
      "aquac": 6998,
      "detailed": 6999,
      "storage": 7000,
      "hundreds": 7001,
      "caesar": 7002,
      "camera": 7003,
      "canterbury": 7004,
      "dat": 7005,
      "mack": 7006,
      "pav": 7007,
      "renew": 7008,
      "encies": 7009,
      "itis": 7010,
      "iture": 7011,
      "stages": 7012,
      "chart": 7013,
      "accompl": 7014,
      "immun": 7015,
      "pella": 7016,
      "umen": 7017,
      "shift": 7018,
      "illinois": 7019,
      "spaces": 7020,
      "finnish": 7021,
      "announ": 7022,
      "aean": 7023,
      "aege": 7024,
      "depicted": 7025,
      "jordan": 7026,
      "cule": 7027,
      "modul": 7028,
      "forests": 7029,
      "revenue": 7030,
      "immigrants": 7031,
      "destruction": 7032,
      "acceler": 7033,
      "pennsylvania": 7034,
      "jans": 7035,
      "rhy": 7036,
      "tay": 7037,
      "wig": 7038,
      "asts": 7039,
      "whit": 7040,
      "prohib": 7041,
      "complic": 7042,
      "copal": 7043,
      "pleas": 7044,
      "disambig": 7045,
      "followers": 7046,
      "naturally": 7047,
      "characterized": 7048,
      "civilization": 7049,
      "sanct": 7050,
      "farmers": 7051,
      "copies": 7052,
      "interpreted": 7053,
      "antisemitic": 7054,
      "beautiful": 7055,
      "yellow": 7056,
      "flying": 7057,
      "kol": 7058,
      "mile": 7059,
      "nings": 7060,
      "parent": 7061,
      "rural": 7062,
      "aruba": 7063,
      "itz": 7064,
      "seats": 7065,
      "dub": 7066,
      "ameter": 7067,
      "jeff": 7068,
      "serves": 7069,
      "signals": 7070,
      "longest": 7071,
      "organisms": 7072,
      "physi": 7073,
      "characteristic": 7074,
      "rising": 7075,
      "reaching": 7076,
      "sounds": 7077,
      "criticized": 7078,
      "sacred": 7079,
      "sportscaster": 7080,
      "aesthet": 7081,
      "protocol": 7082,
      "integrated": 7083,
      "implementation": 7084,
      "antigua": 7085,
      "garden": 7086,
      "jacob": 7087,
      "acknowled": 7088,
      "mixture": 7089,
      "arthritis": 7090,
      "71": 7091,
      "bloc": 7092,
      "gab": 7093,
      "kan": 7094,
      "lap": 7095,
      "pick": 7096,
      "wins": 7097,
      "defic": 7098,
      "logo": 7099,
      "abund": 7100,
      "mosco": 7101,
      "comb": 7102,
      "odys": 7103,
      "versary": 7104,
      "membr": 7105,
      "baron": 7106,
      "binding": 7107,
      "1893": 7108,
      "1894": 7109,
      "arianism": 7110,
      "restor": 7111,
      "atlantis": 7112,
      "polynom": 7113,
      "democrats": 7114,
      "instruction": 7115,
      "delivered": 7116,
      "descendants": 7117,
      "disambiguation": 7118,
      "fs": 7119,
      "mund": 7120,
      "nad": 7121,
      "sess": 7122,
      "sick": 7123,
      "varies": 7124,
      "recru": 7125,
      "ingly": 7126,
      "accus": 7127,
      "administer": 7128,
      "peters": 7129,
      "pled": 7130,
      "hope": 7131,
      "compass": 7132,
      "generated": 7133,
      "calend": 7134,
      "metic": 7135,
      "identical": 7136,
      "complement": 7137,
      "backup": 7138,
      "funding": 7139,
      "belg": 7140,
      "statements": 7141,
      "childhood": 7142,
      "1860": 7143,
      "moses": 7144,
      "chester": 7145,
      "giant": 7146,
      "sacram": 7147,
      "false": 7148,
      "proposal": 7149,
      "occasionally": 7150,
      "salieri": 7151,
      "mesopotam": 7152,
      "gordon": 7153,
      "cathedral": 7154,
      "theastern": 7155,
      "74": 7156,
      "cc": 7157,
      "faster": 7158,
      "gary": 7159,
      "yr": 7160,
      "intr": 7161,
      "exceed": 7162,
      "ume": 7163,
      "notion": 7164,
      "pruss": 7165,
      "meat": 7166,
      "marry": 7167,
      "flights": 7168,
      "referring": 7169,
      "closer": 7170,
      "cros": 7171,
      "autism": 7172,
      "continuing": 7173,
      "continuous": 7174,
      "telephone": 7175,
      "receiving": 7176,
      "painting": 7177,
      "satell": 7178,
      "doubled": 7179,
      "10000": 7180,
      "orbitals": 7181,
      "error": 7182,
      "committed": 7183,
      "gregory": 7184,
      "variant": 7185,
      "weapon": 7186,
      "phrase": 7187,
      "alberto": 7188,
      "ng": 7189,
      "pale": 7190,
      "ining": 7191,
      "onium": 7192,
      "atter": 7193,
      "ora": 7194,
      "agath": 7195,
      "ensional": 7196,
      "bald": 7197,
      "astru": 7198,
      "returning": 7199,
      "furthermore": 7200,
      "journey": 7201,
      "sixth": 7202,
      "flood": 7203,
      "difficulty": 7204,
      "amounts": 7205,
      "publisher": 7206,
      "1920s": 7207,
      "exactly": 7208,
      "precipit": 7209,
      "dollar": 7210,
      "opinion": 7211,
      "appropriate": 7212,
      "adelph": 7213,
      "solzhenitsyn": 7214,
      "metaphys": 7215,
      "sayyaf": 7216,
      "caribbean": 7217,
      "aquaculture": 7218,
      "aegean": 7219,
      "fers": 7220,
      "pard": 7221,
      "rans": 7222,
      "vul": 7223,
      "amas": 7224,
      "sections": 7225,
      "abbot": 7226,
      "emes": 7227,
      "bos": 7228,
      "grade": 7229,
      "mail": 7230,
      "otes": 7231,
      "colour": 7232,
      "offers": 7233,
      "milan": 7234,
      "epi": 7235,
      "battles": 7236,
      "headed": 7237,
      "franç": 7238,
      "franco": 7239,
      "mounted": 7240,
      "resistant": 7241,
      "astronomers": 7242,
      "arrival": 7243,
      "julius": 7244,
      "encouraged": 7245,
      "compatible": 7246,
      "substantial": 7247,
      "moscow": 7248,
      "91": 7249,
      "cking": 7250,
      "emot": 7251,
      "pom": 7252,
      "escap": 7253,
      "touch": 7254,
      "cht": 7255,
      "chile": 7256,
      "amal": 7257,
      "depression": 7258,
      "adic": 7259,
      "vector": 7260,
      "unusual": 7261,
      "abor": 7262,
      "ianus": 7263,
      "displayed": 7264,
      "subur": 7265,
      "transmission": 7266,
      "ahmed": 7267,
      "broken": 7268,
      "metall": 7269,
      "arabia": 7270,
      "processors": 7271,
      "runner": 7272,
      "macro": 7273,
      "honour": 7274,
      "suspe": 7275,
      "antonio": 7276,
      "falcons": 7277,
      "anniversary": 7278,
      "archaeological": 7279,
      "guilty": 7280,
      "victims": 7281,
      "christopher": 7282,
      "94": 7283,
      "fab": 7284,
      "gio": 7285,
      "lud": 7286,
      "sight": 7287,
      "roof": 7288,
      "chen": 7289,
      "dean": 7290,
      "agam": 7291,
      "teeth": 7292,
      "fern": 7293,
      "engaged": 7294,
      "desert": 7295,
      "charges": 7296,
      "generate": 7297,
      "goals": 7298,
      "salts": 7299,
      "magic": 7300,
      "covering": 7301,
      "easy": 7302,
      "claiming": 7303,
      "store": 7304,
      "frances": 7305,
      "concerns": 7306,
      "indicated": 7307,
      "amazons": 7308,
      "campaigns": 7309,
      "policies": 7310,
      "shaped": 7311,
      "volumes": 7312,
      "promote": 7313,
      "vocal": 7314,
      "diplomat": 7315,
      "episcopal": 7316,
      "infrastru": 7317,
      "alumni": 7318,
      "jos": 7319,
      "sab": 7320,
      "vals": 7321,
      "thick": 7322,
      "alph": 7323,
      "arrow": 7324,
      "icial": 7325,
      "tourn": 7326,
      "amm": 7327,
      "prope": 7328,
      "maur": 7329,
      "answer": 7330,
      "inson": 7331,
      "1890": 7332,
      "define": 7333,
      "1889": 7334,
      "earthqu": 7335,
      "expect": 7336,
      "keeping": 7337,
      "performing": 7338,
      "kidn": 7339,
      "circumst": 7340,
      "arrested": 7341,
      "consumption": 7342,
      "huxley": 7343,
      "jacques": 7344,
      "bom": 7345,
      "bread": 7346,
      "bones": 7347,
      "dé": 7348,
      "dish": 7349,
      "knew": 7350,
      "ske": 7351,
      "remember": 7352,
      "albed": 7353,
      "enos": 7354,
      "acad": 7355,
      "acus": 7356,
      "beach": 7357,
      "adjust": 7358,
      "agr": 7359,
      "codes": 7360,
      "gran": 7361,
      "dismiss": 7362,
      "colors": 7363,
      "intention": 7364,
      "carto": 7365,
      "filip": 7366,
      "140": 7367,
      "markets": 7368,
      "winner": 7369,
      "offices": 7370,
      "motiv": 7371,
      "reality": 7372,
      "1882": 7373,
      "clearly": 7374,
      "concern": 7375,
      "experiences": 7376,
      "taxes": 7377,
      "indicates": 7378,
      "korea": 7379,
      "visitors": 7380,
      "bernard": 7381,
      "diversity": 7382,
      "monastery": 7383,
      "perceived": 7384,
      "dion": 7385,
      "iod": 7386,
      "thum": 7387,
      "alter": 7388,
      "eno": 7389,
      "edited": 7390,
      "sts": 7391,
      "debut": 7392,
      "hearing": 7393,
      "feast": 7394,
      "keys": 7395,
      "server": 7396,
      "precise": 7397,
      "colony": 7398,
      "capit": 7399,
      "stored": 7400,
      "revolt": 7401,
      "masters": 7402,
      "femin": 7403,
      "drawing": 7404,
      "concentrated": 7405,
      "pronunciation": 7406,
      "challenge": 7407,
      "lavois": 7408,
      "emphasis": 7409,
      "briefly": 7410,
      "hunting": 7411,
      "philippines": 7412,
      "bav": 7413,
      "bath": 7414,
      "cant": 7415,
      "rav": 7416,
      "vival": 7417,
      "altit": 7418,
      "deaf": 7419,
      "adjac": 7420,
      "adrenal": 7421,
      "agar": 7422,
      "phal": 7423,
      "manual": 7424,
      "meth": 7425,
      "genes": 7426,
      "cession": 7427,
      "transmit": 7428,
      "solve": 7429,
      "retired": 7430,
      "publicly": 7431,
      "ordination": 7432,
      "describing": 7433,
      "moroc": 7434,
      "heads": 7435,
      "binary": 7436,
      "1881": 7437,
      "membership": 7438,
      "bands": 7439,
      "questions": 7440,
      "buddhism": 7441,
      "estimates": 7442,
      "murdered": 7443,
      "anarchism": 7444,
      "exhibition": 7445,
      "aspect": 7446,
      "hypothesis": 7447,
      "mineral": 7448,
      "lithium": 7449,
      "lutheran": 7450,
      "dick": 7451,
      "mant": 7452,
      "ensure": 7453,
      "icks": 7454,
      "amines": 7455,
      "acap": 7456,
      "acles": 7457,
      "unless": 7458,
      "socalled": 7459,
      "lip": 7460,
      "cium": 7461,
      "spin": 7462,
      "disorders": 7463,
      "awk": 7464,
      "attle": 7465,
      "warfare": 7466,
      "cappella": 7467,
      "philadelph": 7468,
      "limits": 7469,
      "tropical": 7470,
      "lasted": 7471,
      "definite": 7472,
      "douglas": 7473,
      "driven": 7474,
      "offering": 7475,
      "railroad": 7476,
      "plato": 7477,
      "aesthetic": 7478,
      "comparative": 7479,
      "restricted": 7480,
      "portrayed": 7481,
      "satisf": 7482,
      "paintings": 7483,
      "abydos": 7484,
      "infrastructure": 7485,
      "adjacent": 7486,
      "73": 7487,
      "hub": 7488,
      "scr": 7489,
      "vacc": 7490,
      "inations": 7491,
      "refin": 7492,
      "toler": 7493,
      "chrom": 7494,
      "chains": 7495,
      "wear": 7496,
      "angol": 7497,
      "marie": 7498,
      "vienna": 7499,
      "engines": 7500,
      "bases": 7501,
      "basil": 7502,
      "finland": 7503,
      "mete": 7504,
      "perspe": 7505,
      "helm": 7506,
      "economics": 7507,
      "camps": 7508,
      "thirty": 7509,
      "ethiop": 7510,
      "1876": 7511,
      "costs": 7512,
      "caliph": 7513,
      "jersey": 7514,
      "assistant": 7515,
      "quantities": 7516,
      "secure": 7517,
      "voted": 7518,
      "tasks": 7519,
      "hungary": 7520,
      "categories": 7521,
      "neighbour": 7522,
      "gallery": 7523,
      "apatosaurus": 7524,
      "traffic": 7525,
      "hz": 7526,
      "hid": 7527,
      "ood": 7528,
      "vak": 7529,
      "tha": 7530,
      "stab": 7531,
      "stret": 7532,
      "det": 7533,
      "isted": 7534,
      "uled": 7535,
      "divisions": 7536,
      "boe": 7537,
      "colleg": 7538,
      "label": 7539,
      "stead": 7540,
      "borrow": 7541,
      "calling": 7542,
      "signif": 7543,
      "lesser": 7544,
      "liturg": 7545,
      "lux": 7546,
      "establishments": 7547,
      "educated": 7548,
      "benj": 7549,
      "ruling": 7550,
      "empty": 7551,
      "castle": 7552,
      "concert": 7553,
      "interests": 7554,
      "mike": 7555,
      "layer": 7556,
      "analytical": 7557,
      "comedian": 7558,
      "apparently": 7559,
      "lifetime": 7560,
      "minimum": 7561,
      "knights": 7562,
      "fruit": 7563,
      "statistical": 7564,
      "tarkovsky": 7565,
      "entertainment": 7566,
      "bh": 7567,
      "cere": 7568,
      "dont": 7569,
      "wine": 7570,
      "androm": 7571,
      "entit": 7572,
      "accommod": 7573,
      "deem": 7574,
      "pool": 7575,
      "allah": 7576,
      "posit": 7577,
      "prede": 7578,
      "annually": 7579,
      "chronic": 7580,
      "equations": 7581,
      "establishing": 7582,
      "facult": 7583,
      "facility": 7584,
      "scand": 7585,
      "declined": 7586,
      "violent": 7587,
      "regularly": 7588,
      "reviews": 7589,
      "suffering": 7590,
      "theologian": 7591,
      "aesthetics": 7592,
      "aort": 7593,
      "bought": 7594,
      "cpc": 7595,
      "gly": 7596,
      "hang": 7597,
      "hra": 7598,
      "wol": 7599,
      "inate": 7600,
      "thel": 7601,
      "replace": 7602,
      "retained": 7603,
      "stating": 7604,
      "unte": 7605,
      "abad": 7606,
      "mov": 7607,
      "plural": 7608,
      "1800": 7609,
      "iveness": 7610,
      "corps": 7611,
      "gospe": 7612,
      "senator": 7613,
      "plication": 7614,
      "camus": 7615,
      "huge": 7616,
      "speaker": 7617,
      "ashokas": 7618,
      "algerian": 7619,
      "planning": 7620,
      "molecular": 7621,
      "suitable": 7622,
      "olymp": 7623,
      "monarchs": 7624,
      "enjoyed": 7625,
      "kennedy": 7626,
      "predominant": 7627,
      "agamem": 7628,
      "predecess": 7629,
      "8th": 7630,
      "ecol": 7631,
      "jaz": 7632,
      "lum": 7633,
      "mia": 7634,
      "santa": 7635,
      "zi": 7636,
      "routes": 7637,
      "seasons": 7638,
      "oles": 7639,
      "omorph": 7640,
      "lywood": 7641,
      "imm": 7642,
      "verb": 7643,
      "shall": 7644,
      "fron": 7645,
      "cave": 7646,
      "variables": 7647,
      "willing": 7648,
      "periodic": 7649,
      "1864": 7650,
      "males": 7651,
      "everything": 7652,
      "sunday": 7653,
      "fishing": 7654,
      "aristotles": 7655,
      "collins": 7656,
      "pictures": 7657,
      "olympic": 7658,
      "varying": 7659,
      "recommended": 7660,
      "admiral": 7661,
      "horizontal": 7662,
      "83": 7663,
      "oto": 7664,
      "pont": 7665,
      "tool": 7666,
      "acia": 7667,
      "acety": 7668,
      "terior": 7669,
      "igo": 7670,
      "lob": 7671,
      "aya": 7672,
      "embr": 7673,
      "exile": 7674,
      "ache": 7675,
      "crash": 7676,
      "crafts": 7677,
      "borough": 7678,
      "merged": 7679,
      "temples": 7680,
      "influences": 7681,
      "1886": 7682,
      "synthetic": 7683,
      "childrens": 7684,
      "fleming": 7685,
      "mothers": 7686,
      "frequent": 7687,
      "investment": 7688,
      "ranging": 7689,
      "purchased": 7690,
      "oxidation": 7691,
      "passengers": 7692,
      "alaric": 7693,
      "dürer": 7694,
      "circumstances": 7695,
      "acapul": 7696,
      "benjamin": 7697,
      "dal": 7698,
      "kim": 7699,
      "yiel": 7700,
      "reconstruction": 7701,
      "orous": 7702,
      "lets": 7703,
      "urs": 7704,
      "veter": 7705,
      "antarct": 7706,
      "clam": 7707,
      "essentially": 7708,
      "brig": 7709,
      "angular": 7710,
      "bling": 7711,
      "acha": 7712,
      "archive": 7713,
      "souls": 7714,
      "volunte": 7715,
      "trials": 7716,
      "populated": 7717,
      "namely": 7718,
      "grammar": 7719,
      "anthony": 7720,
      "responsibility": 7721,
      "celest": 7722,
      "discussed": 7723,
      "bachchan": 7724,
      "dramatic": 7725,
      "sweet": 7726,
      "skills": 7727,
      "procedure": 7728,
      "installed": 7729,
      "andré": 7730,
      "merely": 7731,
      "legitimate": 7732,
      "anatomy": 7733,
      "antiquity": 7734,
      "flop": 7735,
      "lomb": 7736,
      "inas": 7737,
      "infinite": 7738,
      "rocks": 7739,
      "lose": 7740,
      "ulating": 7741,
      "traged": 7742,
      "lia": 7743,
      "quad": 7744,
      "assign": 7745,
      "desire": 7746,
      "crater": 7747,
      "warm": 7748,
      "simult": 7749,
      "owner": 7750,
      "salt": 7751,
      "technologies": 7752,
      "dependent": 7753,
      "1866": 7754,
      "religions": 7755,
      "declar": 7756,
      "predict": 7757,
      "graduate": 7758,
      "percentage": 7759,
      "flowers": 7760,
      "implemented": 7761,
      "discussion": 7762,
      "variants": 7763,
      "electricity": 7764,
      "reflected": 7765,
      "russell": 7766,
      "wrong": 7767,
      "restaurants": 7768,
      "ptolemy": 7769,
      "antarctica": 7770,
      "115": 7771,
      "dance": 7772,
      "gone": 7773,
      "kö": 7774,
      "nak": 7775,
      "send": 7776,
      "throw": 7777,
      "inqu": 7778,
      "infection": 7779,
      "orange": 7780,
      "icop": 7781,
      "cham": 7782,
      "accent": 7783,
      "semin": 7784,
      "olics": 7785,
      "impossible": 7786,
      "prot": 7787,
      "prove": 7788,
      "marble": 7789,
      "partial": 7790,
      "cypr": 7791,
      "trip": 7792,
      "distric": 7793,
      "130": 7794,
      "epic": 7795,
      "patrick": 7796,
      "fluor": 7797,
      "strike": 7798,
      "flex": 7799,
      "settlers": 7800,
      "patriarch": 7801,
      "cabin": 7802,
      "distinguish": 7803,
      "inscription": 7804,
      "preparation": 7805,
      "windows": 7806,
      "rhetor": 7807,
      "explanation": 7808,
      "schweitzer": 7809,
      "calendar": 7810,
      "philadelphia": 7811,
      "aard": 7812,
      "dict": 7813,
      "jum": 7814,
      "ml": 7815,
      "tai": 7816,
      "vog": 7817,
      "wet": 7818,
      "deck": 7819,
      "oman": 7820,
      "begun": 7821,
      "versy": 7822,
      "pole": 7823,
      "dios": 7824,
      "pharm": 7825,
      "cius": 7826,
      "peru": 7827,
      "claudi": 7828,
      "bruce": 7829,
      "assess": 7830,
      "formes": 7831,
      "ott": 7832,
      "prev": 7833,
      "cert": 7834,
      "borders": 7835,
      "score": 7836,
      "scope": 7837,
      "controversy": 7838,
      "magnetic": 7839,
      "1892": 7840,
      "1897": 7841,
      "1868": 7842,
      "stood": 7843,
      "1875": 7844,
      "colonel": 7845,
      "survive": 7846,
      "hills": 7847,
      "prompt": 7848,
      "dioces": 7849,
      "stellar": 7850,
      "municipality": 7851,
      "distinguished": 7852,
      "elsewhere": 7853,
      "composers": 7854,
      "clergy": 7855,
      "theoretical": 7856,
      "controversial": 7857,
      "albedo": 7858,
      "114": 7859,
      "rating": 7860,
      "rush": 7861,
      "tut": 7862,
      "zam": 7863,
      "protons": 7864,
      "plain": 7865,
      "estate": 7866,
      "boys": 7867,
      "monument": 7868,
      "attor": 7869,
      "intervent": 7870,
      "minute": 7871,
      "themes": 7872,
      "supplement": 7873,
      "metric": 7874,
      "aea": 7875,
      "appell": 7876,
      "depends": 7877,
      "palest": 7878,
      "meanwhile": 7879,
      "1888": 7880,
      "anderson": 7881,
      "isaac": 7882,
      "width": 7883,
      "axioms": 7884,
      "legislation": 7885,
      "promoted": 7886,
      "ukrainian": 7887,
      "suicide": 7888,
      "entitled": 7889,
      "cyprus": 7890,
      "districts": 7891,
      "92": 7892,
      "93": 7893,
      "dil": 7894,
      "eald": 7895,
      "gang": 7896,
      "ien": 7897,
      "kat": 7898,
      "rays": 7899,
      "sah": 7900,
      "tent": 7901,
      "anagram": 7902,
      "ouse": 7903,
      "adults": 7904,
      "conspir": 7905,
      "loop": 7906,
      "resid": 7907,
      "cooper": 7908,
      "essays": 7909,
      "mentions": 7910,
      "brad": 7911,
      "ptic": 7912,
      "discrim": 7913,
      "joe": 7914,
      "oked": 7915,
      "subsid": 7916,
      "thendie": 7917,
      "trium": 7918,
      "skull": 7919,
      "pping": 7920,
      "hosted": 7921,
      "teachers": 7922,
      "daughters": 7923,
      "modulation": 7924,
      "industries": 7925,
      "ranges": 7926,
      "instructions": 7927,
      "caucas": 7928,
      "manuscript": 7929,
      "gif": 7930,
      "lakes": 7931,
      "nab": 7932,
      "nest": 7933,
      "pairs": 7934,
      "infer": 7935,
      "recept": 7936,
      "enforce": 7937,
      "aris": 7938,
      "andes": 7939,
      "icrob": 7940,
      "uncle": 7941,
      "conven": 7942,
      "configur": 7943,
      "abalone": 7944,
      "shak": 7945,
      "icance": 7946,
      "marg": 7947,
      "grothendie": 7948,
      "ahmad": 7949,
      "goth": 7950,
      "save": 7951,
      "seek": 7952,
      "christmas": 7953,
      "queens": 7954,
      "arabian": 7955,
      "harry": 7956,
      "funer": 7957,
      "helicop": 7958,
      "voters": 7959,
      "trying": 7960,
      "thirteen": 7961,
      "1885": 7962,
      "1870": 7963,
      "budget": 7964,
      "connections": 7965,
      "heavier": 7966,
      "meetings": 7967,
      "minority": 7968,
      "laden": 7969,
      "participated": 7970,
      "antimicrob": 7971,
      "dynamic": 7972,
      "eccles": 7973,
      "mercury": 7974,
      "constellation": 7975,
      "adrián": 7976,
      "intermediate": 7977,
      "execution": 7978,
      "acapulco": 7979,
      "aen": 7980,
      "cill": 7981,
      "knight": 7982,
      "oy": 7983,
      "iner": 7984,
      "encing": 7985,
      "asca": 7986,
      "seed": 7987,
      "lyrics": 7988,
      "mored": 7989,
      "resident": 7990,
      "pod": 7991,
      "phanes": 7992,
      "maj": 7993,
      "afterwards": 7994,
      "beta": 7995,
      "extin": 7996,
      "125": 7997,
      "simon": 7998,
      "chris": 7999,
      "13th": 8000,
      "faction": 8001,
      "trojan": 8002,
      "wilson": 8003,
      "representative": 8004,
      "facilit": 8005,
      "suffix": 8006,
      "terminal": 8007,
      "kingdoms": 8008,
      "constitu": 8009,
      "racial": 8010,
      "learn": 8011,
      "column": 8012,
      "consequently": 8013,
      "tribute": 8014,
      "voyage": 8015,
      "cotton": 8016,
      "dionys": 8017,
      "acetyl": 8018,
      "600": 8019,
      "dd": 8020,
      "dag": 8021,
      "dum": 8022,
      "fing": 8023,
      "fet": 8024,
      "hors": 8025,
      "oz": 8026,
      "uations": 8027,
      "inno": 8028,
      "anthus": 8029,
      "alta": 8030,
      "tope": 8031,
      "ouri": 8032,
      "imir": 8033,
      "lovel": 8034,
      "modo": 8035,
      "manip": 8036,
      "bots": 8037,
      "ptions": 8038,
      "uding": 8039,
      "partially": 8040,
      "mining": 8041,
      "buy": 8042,
      "14th": 8043,
      "ifications": 8044,
      "presentday": 8045,
      "johnston": 8046,
      "barbud": 8047,
      "delta": 8048,
      "biology": 8049,
      "malays": 8050,
      "1877": 8051,
      "spoke": 8052,
      "responded": 8053,
      "kinds": 8054,
      "ennium": 8055,
      "patterns": 8056,
      "adiab": 8057,
      "restored": 8058,
      "napoleon": 8059,
      "ltd": 8060,
      "mughal": 8061,
      "amendment": 8062,
      "dys": 8063,
      "hart": 8064,
      "pill": 8065,
      "pend": 8066,
      "rical": 8067,
      "saudi": 8068,
      "tong": 8069,
      "vest": 8070,
      "inspir": 8071,
      "icular": 8072,
      "leban": 8073,
      "contrad": 8074,
      "emig": 8075,
      "plas": 8076,
      "este": 8077,
      "coo": 8078,
      "coin": 8079,
      "fee": 8080,
      "centers": 8081,
      "blind": 8082,
      "vii": 8083,
      "monds": 8084,
      "partner": 8085,
      "rent": 8086,
      "osa": 8087,
      "supplies": 8088,
      "surve": 8089,
      "ruption": 8090,
      "morav": 8091,
      "bitumen": 8092,
      "bonds": 8093,
      "citations": 8094,
      "interested": 8095,
      "difficulties": 8096,
      "conflicts": 8097,
      "procedures": 8098,
      "crystal": 8099,
      "narrative": 8100,
      "drinking": 8101,
      "encyclopedia": 8102,
      "belgium": 8103,
      "gill": 8104,
      "lumin": 8105,
      "nig": 8106,
      "theological": 8107,
      "almond": 8108,
      "enlight": 8109,
      "arbit": 8110,
      "oft": 8111,
      "admitted": 8112,
      "imensional": 8113,
      "condem": 8114,
      "antio": 8115,
      "neck": 8116,
      "cott": 8117,
      "cooperation": 8118,
      "shore": 8119,
      "ounded": 8120,
      "gender": 8121,
      "scheme": 8122,
      "philanthro": 8123,
      "rub": 8124,
      "invited": 8125,
      "1879": 8126,
      "sentence": 8127,
      "catholics": 8128,
      "territorial": 8129,
      "falls": 8130,
      "predicted": 8131,
      "approaches": 8132,
      "shooting": 8133,
      "villages": 8134,
      "occupation": 8135,
      "hitler": 8136,
      "hotel": 8137,
      "distributed": 8138,
      "structural": 8139,
      "antoninus": 8140,
      "architectural": 8141,
      "substances": 8142,
      "argentina": 8143,
      "adaptation": 8144,
      "slowly": 8145,
      "musicians": 8146,
      "baptist": 8147,
      "pseudo": 8148,
      "cinema": 8149,
      "deposits": 8150,
      "collapse": 8151,
      "satellite": 8152,
      "significance": 8153,
      "gb": 8154,
      "ique": 8155,
      "atian": 8156,
      "edding": 8157,
      "aspar": 8158,
      "andhra": 8159,
      "ross": 8160,
      "deleg": 8161,
      "waste": 8162,
      "util": 8163,
      "resc": 8164,
      "exposed": 8165,
      "allas": 8166,
      "covers": 8167,
      "shares": 8168,
      "otro": 8169,
      "gery": 8170,
      "someone": 8171,
      "enses": 8172,
      "tony": 8173,
      "stands": 8174,
      "treatments": 8175,
      "1880": 8176,
      "1884": 8177,
      "algol": 8178,
      "synthes": 8179,
      "relationships": 8180,
      "liberty": 8181,
      "governors": 8182,
      "requirements": 8183,
      "efficient": 8184,
      "accurate": 8185,
      "amphibians": 8186,
      "exclusively": 8187,
      "photographs": 8188,
      "struggle": 8189,
      "nicholas": 8190,
      "velocity": 8191,
      "meteor": 8192,
      "9th": 8193,
      "cci": 8194,
      "fan": 8195,
      "gart": 8196,
      "rations": 8197,
      "raw": 8198,
      "sort": 8199,
      "vig": 8200,
      "vlad": 8201,
      "yle": 8202,
      "alism": 8203,
      "ensu": 8204,
      "omon": 8205,
      "adil": 8206,
      "imprison": 8207,
      "prox": 8208,
      "commodo": 8209,
      "rians": 8210,
      "trid": 8211,
      "melo": 8212,
      "bless": 8213,
      "volt": 8214,
      "distant": 8215,
      "venice": 8216,
      "apply": 8217,
      "defended": 8218,
      "penal": 8219,
      "horn": 8220,
      "recognize": 8221,
      "1836": 8222,
      "isotope": 8223,
      "tiber": 8224,
      "votes": 8225,
      "arrangement": 8226,
      "cataly": 8227,
      "kelly": 8228,
      "passenger": 8229,
      "manufacturer": 8230,
      "consumer": 8231,
      "fossil": 8232,
      "franchise": 8233,
      "cousin": 8234,
      "declaration": 8235,
      "ee": 8236,
      "oak": 8237,
      "spot": 8238,
      "ör": 8239,
      "inse": 8240,
      "ania": 8241,
      "roles": 8242,
      "stability": 8243,
      "ching": 8244,
      "usions": 8245,
      "ido": 8246,
      "eline": 8247,
      "weigh": 8248,
      "aven": 8249,
      "archery": 8250,
      "wells": 8251,
      "treatise": 8252,
      "networks": 8253,
      "ylus": 8254,
      "istanbul": 8255,
      "scenes": 8256,
      "eggs": 8257,
      "terminology": 8258,
      "instrumental": 8259,
      "observation": 8260,
      "friendship": 8261,
      "sticism": 8262,
      "legislative": 8263,
      "octavian": 8264,
      "apostles": 8265,
      "furniture": 8266,
      "faculty": 8267,
      "ij": 8268,
      "iently": 8269,
      "sale": 8270,
      "inau": 8271,
      "chal": 8272,
      "dez": 8273,
      "congreg": 8274,
      "igno": 8275,
      "modest": 8276,
      "pear": 8277,
      "diameter": 8278,
      "clust": 8279,
      "plea": 8280,
      "ivan": 8281,
      "formations": 8282,
      "cricket": 8283,
      "intosh": 8284,
      "15th": 8285,
      "draft": 8286,
      "appeals": 8287,
      "funds": 8288,
      "denied": 8289,
      "ika": 8290,
      "glac": 8291,
      "1883": 8292,
      "besides": 8293,
      "circul": 8294,
      "satur": 8295,
      "panic": 8296,
      "jacksons": 8297,
      "tasman": 8298,
      "antigen": 8299,
      "decrease": 8300,
      "explorer": 8301,
      "evolutionary": 8302,
      "maker": 8303,
      "alkaloids": 8304,
      "ealdred": 8305,
      "5000": 8306,
      "iary": 8307,
      "lig": 8308,
      "plo": 8309,
      "recovered": 8310,
      "alpine": 8311,
      "aragon": 8312,
      "oma": 8313,
      "hear": 8314,
      "heir": 8315,
      "etary": 8316,
      "cip": 8317,
      "artill": 8318,
      "qui": 8319,
      "oton": 8320,
      "athlet": 8321,
      "genera": 8322,
      "cale": 8323,
      "merger": 8324,
      "collections": 8325,
      "henri": 8326,
      "advice": 8327,
      "translations": 8328,
      "specialized": 8329,
      "argue": 8330,
      "marketing": 8331,
      "apocry": 8332,
      "spectral": 8333,
      "invention": 8334,
      "aesch": 8335,
      "altar": 8336,
      "bacterial": 8337,
      "injury": 8338,
      "punishment": 8339,
      "threatened": 8340,
      "aloe": 8341,
      "mystery": 8342,
      "explicitly": 8343,
      "dispute": 8344,
      "artillery": 8345,
      "700": 8346,
      "fusion": 8347,
      "glu": 8348,
      "niger": 8349,
      "pagan": 8350,
      "rison": 8351,
      "ito": 8352,
      "ouds": 8353,
      "dee": 8354,
      "forcing": 8355,
      "abbas": 8356,
      "export": 8357,
      "thermo": 8358,
      "pov": 8359,
      "elabor": 8360,
      "notation": 8361,
      "eving": 8362,
      "evil": 8363,
      "cord": 8364,
      "moreover": 8365,
      "parks": 8366,
      "hym": 8367,
      "deput": 8368,
      "matters": 8369,
      "ordained": 8370,
      "magn": 8371,
      "temporary": 8372,
      "juan": 8373,
      "definitions": 8374,
      "assembled": 8375,
      "galax": 8376,
      "champions": 8377,
      "mechanics": 8378,
      "festiv": 8379,
      "aalto": 8380,
      "giac": 8381,
      "measurement": 8382,
      "piano": 8383,
      "legislature": 8384,
      "iliad": 8385,
      "macedonian": 8386,
      "attracted": 8387,
      "sharp": 8388,
      "correspondence": 8389,
      "chairman": 8390,
      "disputed": 8391,
      "eagle": 8392,
      "hellenistic": 8393,
      "partnership": 8394,
      "4000": 8395,
      "react": 8396,
      "reforms": 8397,
      "revised": 8398,
      "alus": 8399,
      "irical": 8400,
      "idae": 8401,
      "shi": 8402,
      "aki": 8403,
      "earned": 8404,
      "fles": 8405,
      "carb": 8406,
      "guar": 8407,
      "1500": 8408,
      "capabilities": 8409,
      "singular": 8410,
      "germanic": 8411,
      "moderate": 8412,
      "testament": 8413,
      "balan": 8414,
      "profession": 8415,
      "regardless": 8416,
      "tourist": 8417,
      "photographer": 8418,
      "situated": 8419,
      "immediate": 8420,
      "looked": 8421,
      "revival": 8422,
      "ceremon": 8423,
      "thinking": 8424,
      "assassination": 8425,
      "mesopotamia": 8426,
      "celestial": 8427,
      "barbuda": 8428,
      "3000": 8429,
      "81": 8430,
      "82": 8431,
      "ais": 8432,
      "bast": 8433,
      "fu": 8434,
      "wider": 8435,
      "anto": 8436,
      "alz": 8437,
      "ilian": 8438,
      "forth": 8439,
      "teries": 8440,
      "fewer": 8441,
      "ifies": 8442,
      "thereafter": 8443,
      "hydr": 8444,
      "icians": 8445,
      "hollywood": 8446,
      "operates": 8447,
      "domain": 8448,
      "aimed": 8449,
      "11th": 8450,
      "1867": 8451,
      "1874": 8452,
      "austroasiatic": 8453,
      "architects": 8454,
      "devoted": 8455,
      "pipe": 8456,
      "integer": 8457,
      "alcott": 8458,
      "democracy": 8459,
      "necessarily": 8460,
      "familiar": 8461,
      "decisions": 8462,
      "wealthy": 8463,
      "happy": 8464,
      "anthropolog": 8465,
      "commentary": 8466,
      "provincial": 8467,
      "mortality": 8468,
      "cauchy": 8469,
      "purchase": 8470,
      "crusade": 8471,
      "replacement": 8472,
      "jonathan": 8473,
      "customs": 8474,
      "earthquake": 8475,
      "asparag": 8476,
      "dir": 8477,
      "fans": 8478,
      "lion": 8479,
      "mens": 8480,
      "pist": 8481,
      "tang": 8482,
      "tends": 8483,
      "ye": 8484,
      "ía": 8485,
      "adams": 8486,
      "cement": 8487,
      "worn": 8488,
      "gray": 8489,
      "grain": 8490,
      "productive": 8491,
      "capability": 8492,
      "hymn": 8493,
      "drag": 8494,
      "supports": 8495,
      "tribe": 8496,
      "wellknown": 8497,
      "belt": 8498,
      "dense": 8499,
      "aneously": 8500,
      "lasting": 8501,
      "1878": 8502,
      "commanded": 8503,
      "aristophanes": 8504,
      "liberation": 8505,
      "contribution": 8506,
      "colorado": 8507,
      "maryland": 8508,
      "confederacy": 8509,
      "boxer": 8510,
      "turkic": 8511,
      "promised": 8512,
      "deeply": 8513,
      "infections": 8514,
      "taylor": 8515,
      "restoration": 8516,
      "françois": 8517,
      "metallic": 8518,
      "agamemnon": 8519,
      "achaemen": 8520,
      "cun": 8521,
      "lis": 8522,
      "mine": 8523,
      "ux": 8524,
      "eding": 8525,
      "itudes": 8526,
      "chick": 8527,
      "riac": 8528,
      "ianism": 8529,
      "trace": 8530,
      "lift": 8531,
      "bras": 8532,
      "syd": 8533,
      "guest": 8534,
      "underground": 8535,
      "buff": 8536,
      "drink": 8537,
      "10th": 8538,
      "venus": 8539,
      "venez": 8540,
      "breaking": 8541,
      "pointed": 8542,
      "personality": 8543,
      "businesses": 8544,
      "independently": 8545,
      "engineers": 8546,
      "choose": 8547,
      "ranks": 8548,
      "affair": 8549,
      "enemies": 8550,
      "makers": 8551,
      "manufacturers": 8552,
      "opponents": 8553,
      "oblig": 8554,
      "immune": 8555,
      "claudius": 8556,
      "commodore": 8557,
      "117": 8558,
      "fis": 8559,
      "gom": 8560,
      "ipel": 8561,
      "oath": 8562,
      "pash": 8563,
      "rim": 8564,
      "tone": 8565,
      "wy": 8566,
      "yards": 8567,
      "really": 8568,
      "edin": 8569,
      "behalf": 8570,
      "aders": 8571,
      "iments": 8572,
      "aggress": 8573,
      "prosper": 8574,
      "etics": 8575,
      "plague": 8576,
      "trail": 8577,
      "grah": 8578,
      "vibr": 8579,
      "monks": 8580,
      "grey": 8581,
      "intercept": 8582,
      "guy": 8583,
      "finity": 8584,
      "extant": 8585,
      "struck": 8586,
      "retail": 8587,
      "depth": 8588,
      "matrix": 8589,
      "vespu": 8590,
      "easier": 8591,
      "damaged": 8592,
      "synd": 8593,
      "circular": 8594,
      "occurring": 8595,
      "homes": 8596,
      "duties": 8597,
      "companys": 8598,
      "botan": 8599,
      "lovell": 8600,
      "anoint": 8601,
      "julian": 8602,
      "participate": 8603,
      "happened": 8604,
      "variance": 8605,
      "cabinet": 8606,
      "syllab": 8607,
      "frogs": 8608,
      "akkadian": 8609,
      "tournament": 8610,
      "altitude": 8611,
      "eis": 8612,
      "lf": 8613,
      "nap": 8614,
      "oph": 8615,
      "pd": 8616,
      "tin": 8617,
      "atax": 8618,
      "ulus": 8619,
      "ultr": 8620,
      "modi": 8621,
      "noise": 8622,
      "sud": 8623,
      "iant": 8624,
      "estimate": 8625,
      "permitted": 8626,
      "ongo": 8627,
      "ensed": 8628,
      "consol": 8629,
      "cket": 8630,
      "anyone": 8631,
      "surfaces": 8632,
      "retire": 8633,
      "seeing": 8634,
      "organisation": 8635,
      "invaded": 8636,
      "relevant": 8637,
      "benedict": 8638,
      "realm": 8639,
      "onymous": 8640,
      "1873": 8641,
      "literally": 8642,
      "companion": 8643,
      "autobiography": 8644,
      "foods": 8645,
      "flown": 8646,
      "reportedly": 8647,
      "1776": 8648,
      "reasoning": 8649,
      "observances": 8650,
      "nova": 8651,
      "anarchist": 8652,
      "patriot": 8653,
      "patriots": 8654,
      "couple": 8655,
      "dinosaur": 8656,
      "possession": 8657,
      "caesium": 8658,
      "psychology": 8659,
      "darwin": 8660,
      "diplomatic": 8661,
      "bringing": 8662,
      "caval": 8663,
      "initiated": 8664,
      "phenomenon": 8665,
      "indoeuropean": 8666,
      "memoir": 8667,
      "ambrosius": 8668,
      "arithmetic": 8669,
      "convinced": 8670,
      "lavoisier": 8671,
      "deemed": 8672,
      "margaret": 8673,
      "aeschylus": 8674,
      "112": 8675,
      "brian": 8676,
      "mé": 8677,
      "sans": 8678,
      "sulf": 8679,
      "remark": 8680,
      "alive": 8681,
      "armored": 8682,
      "ascent": 8683,
      "tock": 8684,
      "rober": 8685,
      "ionic": 8686,
      "stap": 8687,
      "iling": 8688,
      "olds": 8689,
      "loqu": 8690,
      "loved": 8691,
      "rie": 8692,
      "peas": 8693,
      "perception": 8694,
      "afford": 8695,
      "prising": 8696,
      "angels": 8697,
      "marcus": 8698,
      "herself": 8699,
      "elev": 8700,
      "regime": 8701,
      "mainstream": 8702,
      "charter": 8703,
      "hybrid": 8704,
      "brook": 8705,
      "12th": 8706,
      "likewise": 8707,
      "missiles": 8708,
      "requiring": 8709,
      "seeking": 8710,
      "christies": 8711,
      "militia": 8712,
      "masses": 8713,
      "associative": 8714,
      "museums": 8715,
      "lectures": 8716,
      "benefits": 8717,
      "honorary": 8718,
      "republicans": 8719,
      "tells": 8720,
      "virtually": 8721,
      "vacu": 8722,
      "stabil": 8723,
      "andromeda": 8724,
      "aeneas": 8725,
      "bard": 8726,
      "bits": 8727,
      "cd": 8728,
      "oa": 8729,
      "alnus": 8730,
      "enor": 8731,
      "asa": 8732,
      "stamp": 8733,
      "starr": 8734,
      "accum": 8735,
      "decom": 8736,
      "adher": 8737,
      "una": 8738,
      "loose": 8739,
      "emann": 8740,
      "resigned": 8741,
      "interactions": 8742,
      "eleven": 8743,
      "paras": 8744,
      "mainland": 8745,
      "borne": 8746,
      "developments": 8747,
      "patro": 8748,
      "crop": 8749,
      "tempor": 8750,
      "criter": 8751,
      "federation": 8752,
      "penicillin": 8753,
      "stronger": 8754,
      "castile": 8755,
      "flew": 8756,
      "accessible": 8757,
      "birthday": 8758,
      "license": 8759,
      "babb": 8760,
      "dream": 8761,
      "polarization": 8762,
      "amaranth": 8763,
      "linguistic": 8764,
      "atmospher": 8765,
      "macedon": 8766,
      "extraction": 8767,
      "hatch": 8768,
      "shorter": 8769,
      "ulsion": 8770,
      "rifice": 8771,
      "filipino": 8772,
      "vivaldi": 8773,
      "angolan": 8774,
      "clamation": 8775,
      "gus": 8776,
      "gates": 8777,
      "gaud": 8778,
      "rines": 8779,
      "sik": 8780,
      "albo": 8781,
      "almorav": 8782,
      "icing": 8783,
      "itative": 8784,
      "stayed": 8785,
      "leton": 8786,
      "ilton": 8787,
      "beings": 8788,
      "ressing": 8789,
      "soc": 8790,
      "trim": 8791,
      "lide": 8792,
      "strain": 8793,
      "monk": 8794,
      "dost": 8795,
      "colomb": 8796,
      "compens": 8797,
      "interaction": 8798,
      "thereby": 8799,
      "consul": 8800,
      "borg": 8801,
      "surrounded": 8802,
      "surgery": 8803,
      "metry": 8804,
      "persia": 8805,
      "varied": 8806,
      "holoc": 8807,
      "topics": 8808,
      "morning": 8809,
      "wilhelm": 8810,
      "treaties": 8811,
      "returns": 8812,
      "optical": 8813,
      "albertas": 8814,
      "wooden": 8815,
      "quantity": 8816,
      "sacrifice": 8817,
      "albums": 8818,
      "cardinals": 8819,
      "reliable": 8820,
      "illustrated": 8821,
      "storm": 8822,
      "dimin": 8823,
      "injuries": 8824,
      "credit": 8825,
      "window": 8826,
      "trigger": 8827,
      "dangerous": 8828,
      "antidepressants": 8829,
      "floppy": 8830,
      "gothic": 8831,
      "proxim": 8832,
      "116": 8833,
      "beng": 8834,
      "dishes": 8835,
      "fm": 8836,
      "gift": 8837,
      "hn": 8838,
      "iate": 8839,
      "mik": 8840,
      "ube": 8841,
      "upt": 8842,
      "leth": 8843,
      "amen": 8844,
      "deities": 8845,
      "concrete": 8846,
      "idas": 8847,
      "residence": 8848,
      "cole": 8849,
      "porter": 8850,
      "assis": 8851,
      "anglos": 8852,
      "margin": 8853,
      "corpus": 8854,
      "dispers": 8855,
      "deser": 8856,
      "ahu": 8857,
      "offensive": 8858,
      "aleks": 8859,
      "barcel": 8860,
      "commonwealth": 8861,
      "winds": 8862,
      "landscape": 8863,
      "potentially": 8864,
      "optics": 8865,
      "macintosh": 8866,
      "studying": 8867,
      "aboard": 8868,
      "100000": 8869,
      "mises": 8870,
      "crossed": 8871,
      "geographic": 8872,
      "mathematicians": 8873,
      "ohio": 8874,
      "housing": 8875,
      "mutual": 8876,
      "behaviour": 8877,
      "saved": 8878,
      "portray": 8879,
      "chancell": 8880,
      "strategic": 8881,
      "valuable": 8882,
      "banned": 8883,
      "altruism": 8884,
      "polynomial": 8885,
      "administered": 8886,
      "horses": 8887,
      "arbitr": 8888,
      "tiberius": 8889,
      "cpu": 8890,
      "gay": 8891,
      "ht": 8892,
      "ores": 8893,
      "rb": 8894,
      "rally": 8895,
      "tub": 8896,
      "vital": 8897,
      "ww": 8898,
      "inch": 8899,
      "eros": 8900,
      "rect": 8901,
      "sted": 8902,
      "segment": 8903,
      "abacus": 8904,
      "heter": 8905,
      "comics": 8906,
      "plates": 8907,
      "tran": 8908,
      "trum": 8909,
      "coined": 8910,
      "shield": 8911,
      "geoff": 8912,
      "notice": 8913,
      "serial": 8914,
      "crude": 8915,
      "intense": 8916,
      "oscar": 8917,
      "obvi": 8918,
      "singing": 8919,
      "iowa": 8920,
      "gym": 8921,
      "muscle": 8922,
      "epist": 8923,
      "lawrence": 8924,
      "fault": 8925,
      "trading": 8926,
      "passes": 8927,
      "realized": 8928,
      "household": 8929,
      "civilian": 8930,
      "properly": 8931,
      "bells": 8932,
      "turning": 8933,
      "murray": 8934,
      "incidents": 8935,
      "1858": 8936,
      "driving": 8937,
      "assisted": 8938,
      "objective": 8939,
      "louisiana": 8940,
      "extensively": 8941,
      "addressed": 8942,
      "tunnel": 8943,
      "conquer": 8944,
      "minerals": 8945,
      "cofounded": 8946,
      "oriented": 8947,
      "navigation": 8948,
      "mongol": 8949,
      "vladimir": 8950,
      "sydney": 8951,
      "backs": 8952,
      "lights": 8953,
      "och": 8954,
      "scan": 8955,
      "tam": 8956,
      "tip": 8957,
      "reception": 8958,
      "alloy": 8959,
      "aside": 8960,
      "sees": 8961,
      "oms": 8962,
      "omer": 8963,
      "ceme": 8964,
      "exports": 8965,
      "liver": 8966,
      "lips": 8967,
      "worst": 8968,
      "printer": 8969,
      "ody": 8970,
      "grass": 8971,
      "blacks": 8972,
      "syriac": 8973,
      "desk": 8974,
      "flav": 8975,
      "raising": 8976,
      "adequ": 8977,
      "1940s": 8978,
      "supplied": 8979,
      "tested": 8980,
      "morality": 8981,
      "dancer": 8982,
      "athenian": 8983,
      "1872": 8984,
      "egyptians": 8985,
      "cheap": 8986,
      "probability": 8987,
      "performances": 8988,
      "widow": 8989,
      "ancestry": 8990,
      "emancip": 8991,
      "kirk": 8992,
      "framework": 8993,
      "exercise": 8994,
      "vessels": 8995,
      "scheduled": 8996,
      "emission": 8997,
      "diacrit": 8998,
      "attorney": 8999,
      "antimicrobial": 9000,
      "lovelace": 9001,
      "antioch": 9002,
      "deputy": 9003,
      "bare": 9004,
      "hired": 9005,
      "honey": 9006,
      "ode": 9007,
      "uous": 9008,
      "yar": 9009,
      "reno": 9010,
      "andaman": 9011,
      "lecture": 9012,
      "ambass": 9013,
      "acute": 9014,
      "deity": 9015,
      "bears": 9016,
      "termed": 9017,
      "loan": 9018,
      "appreci": 9019,
      "excav": 9020,
      "antony": 9021,
      "lib": 9022,
      "afi": 9023,
      "afroasiatic": 9024,
      "presum": 9025,
      "pressing": 9026,
      "izer": 9027,
      "portions": 9028,
      "genre": 9029,
      "prey": 9030,
      "prestig": 9031,
      "osity": 9032,
      "archipel": 9033,
      "surge": 9034,
      "legs": 9035,
      "longterm": 9036,
      "numbered": 9037,
      "operational": 9038,
      "hume": 9039,
      "jane": 9040,
      "hamilton": 9041,
      "statues": 9042,
      "loyd": 9043,
      "studios": 9044,
      "downtown": 9045,
      "ethical": 9046,
      "doubles": 9047,
      "doubt": 9048,
      "martial": 9049,
      "attempting": 9050,
      "1848": 9051,
      "emergency": 9052,
      "secution": 9053,
      "alloys": 9054,
      "equipped": 9055,
      "progressive": 9056,
      "stroke": 9057,
      "phenomena": 9058,
      "kentuck": 9059,
      "discipline": 9060,
      "perspective": 9061,
      "gospel": 9062,
      "festivals": 9063,
      "achaemenid": 9064,
      "venezuel": 9065,
      "barcelona": 9066,
      "eb": 9067,
      "gaz": 9068,
      "karab": 9069,
      "mates": 9070,
      "nels": 9071,
      "spher": 9072,
      "yield": 9073,
      "ال": 9074,
      "inhab": 9075,
      "almonds": 9076,
      "orum": 9077,
      "icut": 9078,
      "itarian": 9079,
      "chell": 9080,
      "acacia": 9081,
      "ista": 9082,
      "emis": 9083,
      "emir": 9084,
      "exh": 9085,
      "eli": 9086,
      "romantic": 9087,
      "cow": 9088,
      "wned": 9089,
      "presidents": 9090,
      "fertil": 9091,
      "canber": 9092,
      "creative": 9093,
      "howard": 9094,
      "landed": 9095,
      "prefix": 9096,
      "attested": 9097,
      "fract": 9098,
      "norman": 9099,
      "norway": 9100,
      "ensis": 9101,
      "cked": 9102,
      "submitted": 9103,
      "cylin": 9104,
      "barr": 9105,
      "radar": 9106,
      "humanity": 9107,
      "1887": 9108,
      "armenias": 9109,
      "victories": 9110,
      "suggesting": 9111,
      "wald": 9112,
      "1857": 9113,
      "select": 9114,
      "distinctive": 9115,
      "adoption": 9116,
      "lincolns": 9117,
      "shapes": 9118,
      "specified": 9119,
      "geometric": 9120,
      "girl": 9121,
      "argentine": 9122,
      "strengthen": 9123,
      "exploration": 9124,
      "abolition": 9125,
      "newspapers": 9126,
      "theodos": 9127,
      "sicily": 9128,
      "sparta": 9129,
      "babylonian": 9130,
      "liberties": 9131,
      "cognitive": 9132,
      "involvement": 9133,
      "treasury": 9134,
      "rhyth": 9135,
      "colleges": 9136,
      "guarante": 9137,
      "holocaust": 9138,
      "fib": 9139,
      "kour": 9140,
      "lac": 9141,
      "rash": 9142,
      "remove": 9143,
      "chim": 9144,
      "deliber": 9145,
      "lod": 9146,
      "agement": 9147,
      "cloud": 9148,
      "iah": 9149,
      "creek": 9150,
      "ella": 9151,
      "raise": 9152,
      "visiting": 9153,
      "matthe": 9154,
      "germans": 9155,
      "nervous": 9156,
      "locally": 9157,
      "mitt": 9158,
      "aurus": 9159,
      "1871": 9160,
      "socialist": 9161,
      "duty": 9162,
      "getting": 9163,
      "gaul": 9164,
      "automobile": 9165,
      "symbolic": 9166,
      "libraries": 9167,
      "melting": 9168,
      "conclusion": 9169,
      "karpov": 9170,
      "1783": 9171,
      "rooms": 9172,
      "exhibit": 9173,
      "psychological": 9174,
      "girls": 9175,
      "ownership": 9176,
      "challenged": 9177,
      "tape": 9178,
      "acoustics": 9179,
      "plutonium": 9180,
      "volcanic": 9181,
      "consecut": 9182,
      "evangelical": 9183,
      "graham": 9184,
      "modific": 9185,
      "800": 9186,
      "bent": 9187,
      "cable": 9188,
      "garr": 9189,
      "kansas": 9190,
      "lah": 9191,
      "pius": 9192,
      "rings": 9193,
      "siv": 9194,
      "tum": 9195,
      "wool": 9196,
      "wore": 9197,
      "ão": 9198,
      "rever": 9199,
      "enco": 9200,
      "enhan": 9201,
      "lys": 9202,
      "healing": 9203,
      "proven": 9204,
      "artemis": 9205,
      "dust": 9206,
      "fever": 9207,
      "blues": 9208,
      "disability": 9209,
      "opens": 9210,
      "fraction": 9211,
      "raid": 9212,
      "relativity": 9213,
      "societies": 9214,
      "milk": 9215,
      "empires": 9216,
      "aikid": 9217,
      "programme": 9218,
      "massacre": 9219,
      "penet": 9220,
      "construct": 9221,
      "judgment": 9222,
      "ranking": 9223,
      "streets": 9224,
      "biggest": 9225,
      "acceptance": 9226,
      "detect": 9227,
      "heroes": 9228,
      "fragment": 9229,
      "widdecom": 9230,
      "improvements": 9231,
      "vocabul": 9232,
      "argentinian": 9233,
      "terrorist": 9234,
      "removal": 9235,
      "orchestra": 9236,
      "diamond": 9237,
      "ransom": 9238,
      "grothendieck": 9239,
      "hymns": 9240,
      "cavalry": 9241,
      "gaudí": 9242,
      "vocabulary": 9243,
      "cad": 9244,
      "dictions": 9245,
      "hl": 9246,
      "hatt": 9247,
      "nac": 9248,
      "ninet": 9249,
      "pson": 9250,
      "pages": 9251,
      "sack": 9252,
      "tat": 9253,
      "tissue": 9254,
      "wag": 9255,
      "restri": 9256,
      "enh": 9257,
      "leum": 9258,
      "terrain": 9259,
      "resign": 9260,
      "excell": 9261,
      "petr": 9262,
      "erected": 9263,
      "bore": 9264,
      "derives": 9265,
      "bris": 9266,
      "spa": 9267,
      "mars": 9268,
      "marvel": 9269,
      "crust": 9270,
      "attitude": 9271,
      "ieth": 9272,
      "popul": 9273,
      "clos": 9274,
      "topic": 9275,
      "latest": 9276,
      "denomin": 9277,
      "250": 9278,
      "bias": 9279,
      "franz": 9280,
      "ethyl": 9281,
      "appearances": 9282,
      "electronics": 9283,
      "1859": 9284,
      "battery": 9285,
      "alabaster": 9286,
      "stopped": 9287,
      "magazines": 9288,
      "syllable": 9289,
      "jurisdictions": 9290,
      "negotiations": 9291,
      "komn": 9292,
      "petroleum": 9293,
      "funeral": 9294,
      "84": 9295,
      "fired": 9296,
      "gau": 9297,
      "iest": 9298,
      "jav": 9299,
      "mim": 9300,
      "mate": 9301,
      "nile": 9302,
      "sword": 9303,
      "viv": 9304,
      "reich": 9305,
      "encer": 9306,
      "edmon": 9307,
      "orth": 9308,
      "lete": 9309,
      "leagues": 9310,
      "ented": 9311,
      "acter": 9312,
      "seeds": 9313,
      "illegal": 9314,
      "bets": 9315,
      "adverse": 9316,
      "pods": 9317,
      "nephe": 9318,
      "liby": 9319,
      "maneu": 9320,
      "maid": 9321,
      "creed": 9322,
      "viii": 9323,
      "synon": 9324,
      "crimes": 9325,
      "twin": 9326,
      "inton": 9327,
      "generals": 9328,
      "filed": 9329,
      "osex": 9330,
      "ruth": 9331,
      "directions": 9332,
      "courses": 9333,
      "michel": 9334,
      "factions": 9335,
      "salvation": 9336,
      "helen": 9337,
      "personally": 9338,
      "induced": 9339,
      "ontario": 9340,
      "homer": 9341,
      "entering": 9342,
      "buddhas": 9343,
      "demanded": 9344,
      "acquis": 9345,
      "1775": 9346,
      "assyria": 9347,
      "cision": 9348,
      "bourne": 9349,
      "participation": 9350,
      "reflection": 9351,
      "mouthwash": 9352,
      "initiative": 9353,
      "cyclist": 9354,
      "accuracy": 9355,
      "replacing": 9356,
      "jurisdiction": 9357,
      "warriors": 9358,
      "portrait": 9359,
      "entrance": 9360,
      "mackenz": 9361,
      "morocco": 9362,
      "vacuum": 9363,
      "kentucky": 9364,
      "consecutive": 9365,
      "gments": 9366,
      "krit": 9367,
      "kho": 9368,
      "mt": 9369,
      "wich": 9370,
      "zar": 9371,
      "ando": 9372,
      "amorph": 9373,
      "compromise": 9374,
      "plains": 9375,
      "1840": 9376,
      "pradesh": 9377,
      "presby": 9378,
      "evans": 9379,
      "corinth": 9380,
      "llers": 9381,
      "flour": 9382,
      "sche": 9383,
      "steam": 9384,
      "cripts": 9385,
      "valence": 9386,
      "owing": 9387,
      "millions": 9388,
      "tales": 9389,
      "radius": 9390,
      "testim": 9391,
      "evening": 9392,
      "1869": 9393,
      "profile": 9394,
      "halflife": 9395,
      "juda": 9396,
      "races": 9397,
      "agreements": 9398,
      "nominated": 9399,
      "frontier": 9400,
      "lotte": 9401,
      "environments": 9402,
      "burning": 9403,
      "allegiance": 9404,
      "concentrations": 9405,
      "ullah": 9406,
      "losses": 9407,
      "detected": 9408,
      "conservation": 9409,
      "pakistani": 9410,
      "broadcasting": 9411,
      "dogs": 9412,
      "smooth": 9413,
      "inherited": 9414,
      "scripts": 9415,
      "absorption": 9416,
      "deployed": 9417,
      "manifest": 9418,
      "retreat": 9419,
      "movies": 9420,
      "conspiracy": 9421,
      "inspiration": 9422,
      "enlighten": 9423,
      "edinburgh": 9424,
      "consolid": 9425,
[...]
